node {
  name: "global_step"
  op: "Variable"
  attr {
    key: "_output_shapes"
    value {
      list {
        shape {
        }
      }
    }
  }
  attr {
    key: "container"
    value {
      s: ""
    }
  }
  attr {
    key: "dtype"
    value {
      type: DT_INT64
    }
  }
  attr {
    key: "shape"
    value {
      shape {
      }
    }
  }
  attr {
    key: "shared_name"
    value {
      s: ""
    }
  }
}
node {
  name: "global_step/Initializer/zeros"
  op: "Const"
  attr {
    key: "_class"
    value {
      list {
        s: "loc:@global_step"
      }
    }
  }
  attr {
    key: "_output_shapes"
    value {
      list {
        shape {
        }
      }
    }
  }
  attr {
    key: "dtype"
    value {
      type: DT_INT64
    }
  }
  attr {
    key: "value"
    value {
      tensor {
        dtype: DT_INT64
        tensor_shape {
        }
        int64_val: 0
      }
    }
  }
}
node {
  name: "global_step/Assign"
  op: "Assign"
  input: "global_step"
  input: "global_step/Initializer/zeros"
  attr {
    key: "T"
    value {
      type: DT_INT64
    }
  }
  attr {
    key: "_class"
    value {
      list {
        s: "loc:@global_step"
      }
    }
  }
  attr {
    key: "_output_shapes"
    value {
      list {
        shape {
        }
      }
    }
  }
  attr {
    key: "use_locking"
    value {
      b: true
    }
  }
  attr {
    key: "validate_shape"
    value {
      b: true
    }
  }
}
node {
  name: "global_step/read"
  op: "Identity"
  input: "global_step"
  attr {
    key: "T"
    value {
      type: DT_INT64
    }
  }
  attr {
    key: "_class"
    value {
      list {
        s: "loc:@global_step"
      }
    }
  }
  attr {
    key: "_output_shapes"
    value {
      list {
        shape {
        }
      }
    }
  }
}
node {
  name: "Const"
  op: "Const"
  attr {
    key: "_output_shapes"
    value {
      list {
        shape {
          dim {
            size: 1660
          }
        }
      }
    }
  }
  attr {
    key: "dtype"
    value {
      type: DT_FLOAT
    }
  }
  attr {
    key: "value"
    value {
      tensor {
        dtype: DT_FLOAT
        tensor_shape {
          dim {
            size: 1660
          }
        }
        tensor_content: "\000\000\200@\000\000\200@\000\000\200@\000\000\000@\000\000@@\000\000@@\000\000\200@\000\000\000@\000\000\200@\000\000\000@\000\000@@\000\000\200@\000\000\200?\000\000\000A\000\000\200@\000\000\200@\000\000\000@\000\000\200@\000\000\200@\000\000\240@\000\000@@\000\000\000@\000\000\200?\000\000@@\000\000\000@\000\000\000@\000\000\240@\000\000\200@\000\000\000@\000\000\000@\000\000\240@\000\000\200@\000\000\300@\000\000\200@\000\000@@\000\000@@\000\000@@\000\000\000@\000\000\200?\000\000\200@\000\000\200@\000\000\000@\000\000@@\000\000\000@\000\000@@\000\000@@\000\000@@\000\000\200@\000\000\000@\000\000\300@\000\000\200@\000\000\000@\000\000@@\000\000\200@\000\000\200?\000\000\200?\000\000@@\000\000\200@\000\000\000@\000\000@@\000\000\000@\000\000@@\000\000\240@\000\000@@\000\000\200@\000\000\000@\000\000@@\000\000\200?\000\000\200?\000\000\000@\000\000@@\000\000@@\000\000\200@\000\000@@\000\000\000@\000\000@@\000\000@@\000\000\000@\000\000\200@\000\000\000A\000\000@@\000\000\000@\000\000\300@\000\000\240@\000\000\200@\000\000\000@\000\000@@\000\000@@\000\000@@\000\000\000@\000\000\200?\000\000@@\000\000@@\000\000@@\000\000\200@\000\000\000@\000\000@@\000\000\000@\000\000\200@\000\000\200@\000\000\240@\000\000\000@\000\000\200@\000\000\000@\000\000\200@\000\000\200?\000\000\200@\000\000@@\000\000@@\000\000\200@\000\000@@\000\000@@\000\000@@\000\000\200@\000\000\300@\000\000@@\000\000@@\000\000\200@\000\000\200@\000\000@@\000\000@@\000\000\200@\000\000@@\000\000\000@\000\000\020A\000\000\200@\000\000\240@\000\000\000A\000\000\000@\000\000@@\000\000\200?\000\000\240@\000\000\240@\000\000@@\000\000@@\000\000@@\000\000\200@\000\000\200@\000\000@@\000\000\000@\000\000\000@\000\000\200?\000\000@@\000\000\200@\000\000@@\000\000\200@\000\000@@\000\000@@\000\000\000@\000\000\200@\000\000\200@\000\000@@\000\000@@\000\000\200?\000\000\000@\000\000@@\000\000@@\000\000\200?\000\000@@\000\000@@\000\000\200@\000\000@@\000\000\000@\000\000\240@\000\000\200?\000\000\200@\000\000\240@\000\000\000@\000\000@@\000\000\000@\000\000\200@\000\000\200@\000\000@@\000\000 A\000\000@@\000\000\200@\000\000@@\000\000\200@\000\000\000@\000\000\000@\000\000\200@\000\000\200@\000\000\200@\000\000@@\000\000\200@\000\000@@\000\000\200?\000\000\200@\000\000\200@\000\000\200@\000\000@@\000\000\300@\000\000\000@\000\000\200@\000\000@@\000\000@@\000\000\000@\000\000\200@\000\000\200@\000\000\340@\000\000\200@\000\000\240@\000\000\000@\000\000\200@\000\000\300@\000\000\000@\000\000\200@\000\000\240@\000\000\020A\000\000\200@\000\000\000@\000\000\200@\000\000\200@\000\000@@\000\000@@\000\000@@\000\000\200@\000\000\200?\000\000\020A\000\000\200@\000\000\240@\000\000\200@\000\000@@\000\000\000@\000\000\200@\000\000\000@\000\000\200@\000\000@@\000\000@@\000\000@@\000\000@@\000\000\300@\000\000\200@\000\000\240@\000\000\000@\000\000@@\000\000\000@\000\000\000@\000\000\200@\000\000\000@\000\000@@\000\000\000@\000\000\200@\000\000\200@\000\000\200@\000\000\200@\000\000\240@\000\000\000@\000\000@@\000\000@@\000\000@@\000\000\200@\000\000\240@\000\000@@\000\000\200@\000\000@@\000\000\200@\000\000\000@\000\000@@\000\000\000@\000\000@@\000\000@@\000\000\200@\000\000\000@\000\000@@\000\000@@\000\000\200@\000\000\200@\000\000@@\000\000\000@\000\000@@\000\000\300@\000\000\000@\000\000\300@\000\000\000@\000\000@@\000\000\000@\000\000\240@\000\000@@\000\000\240@\000\000\200@\000\000\200@\000\000\240@\000\000\240@\000\000\200@\000\000@@\000\000\200@\000\000\200@\000\000@@\000\000@@\000\000@@\000\000\000@\000\000\200@\000\000\200?\000\000@@\000\000@@\000\000\200@\000\000\200@\000\000@@\000\000\200@\000\000@@\000\000\000@\000\000@@\000\000\200@\000\000\000@\000\000\200@\000\000@@\000\000@@\000\000@@\000\000\000@\000\000\200@\000\000\200@\000\000\240@\000\000@@\000\000\000@\000\000\000@\000\000\200@\000\000@@\000\000\240@\000\000\000@\000\000\240@\000\000\200@\000\000@@\000\000\000@\000\000\200@\000\000\200@\000\000\200@\000\000\200@\000\000@@\000\000\000@\000\000\000@\000\000\340@\000\000\000@\000\000\000@\000\000\200@\000\000\000@\000\000\200@\000\000\200@\000\000\000@\000\000@@\000\000@@\000\000@@\000\000\000@\000\000@@\000\000\200@\000\000\240@\000\000@@\000\000\000@\000\000\200@\000\000\000@\000\000@@\000\000@@\000\000\240@\000\000@@\000\000\000@\000\000@@\000\000\300@\000\000\000@\000\000\000@\000\000\200@\000\000@@\000\000\000@\000\000\000@\000\000\300@\000\000\240@\000\000\000@\000\000\300@\000\000@@\000\000@@\000\000\300@\000\000\300@\000\000@@\000\000@@\000\000@@\000\000@@\000\000\200?\000\000\000@\000\000\000@\000\000\300@\000\000\200@\000\000@@\000\000@@\000\000@@\000\000@@\000\000\000@\000\000@@\000\000\200@\000\000\000@\000\000\200@\000\000\000@\000\000@@\000\000@@\000\000\000@\000\000\200@\000\000@@\000\000\200?\000\000\200?\000\000@@\000\000@@\000\000@@\000\000@@\000\000@@\000\000\200@\000\000\300@\000\000\200@\000\000@@\000\000\200@\000\000\200@\000\000\240@\000\000@@\000\000\200@\000\000\000@\000\000@@\000\000@@\000\000\200@\000\000@@\000\000\240@\000\000@@\000\000\200@\000\000\200@\000\000@@\000\000\200@\000\000\240@\000\000@@\000\000@@\000\000\000@\000\000@@\000\000\200@\000\000\200@\000\000\200@\000\000\240@\000\000\000@\000\000\000@\000\000\000@\000\000\200@\000\000\240@\000\000\240@\000\000\200@\000\000@@\000\000\240@\000\000\200@\000\000@@\000\000\000@\000\000\200@\000\000\000@\000\000@@\000\000\000@\000\000@@\000\000@@\000\000@@\000\000\000@\000\000\000@\000\000\200@\000\000\200@\000\000@@\000\000\000@\000\000\200@\000\000@@\000\000@@\000\000\240@\000\000\200@\000\000@@\000\000\000@\000\000@@\000\000\200@\000\000\000@\000\000\000@\000\000\000@\000\000@@\000\000\200@\000\000\000@\000\000\240@\000\000@@\000\000@@\000\000\000@\000\000\200@\000\000@@\000\000\240@\000\000\240@\000\000\200?\000\000\240@\000\000@@\000\000\000@\000\000\000@\000\000@@\000\000\000@\000\000\200@\000\000@@\000\000\000@\000\000\200?\000\000\200@\000\000\240@\000\000\200@\000\000\200@\000\000\200@\000\000@@\000\000@@\000\000@@\000\000\200?\000\000\000@\000\000\200@\000\000\240@\000\000@@\000\000\200@\000\000\200@\000\000\000@\000\000\000@\000\000\200@\000\000\000@\000\000\200?\000\000\200@\000\000@@\000\000\000@\000\000\240@\000\000\000@\000\000@@\000\000\300@\000\000\240@\000\000\240@\000\000\000@\000\000\000@\000\000\200@\000\000\000@\000\000\000@\000\000\000@\000\000@@\000\000\200@\000\000\200@\000\000\200@\000\000@@\000\000@@\000\000\200@\000\000@@\000\000@@\000\000\240@\000\000\000@\000\000@@\000\000\000@\000\000\240@\000\000\200@\000\000\200@\000\000\200?\000\000\000@\000\000@@\000\000@@\000\000\200@\000\000\000@\000\000\200@\000\000\200@\000\000\000@\000\000@@\000\000\240@\000\000\200@\000\000\240@\000\000\200@\000\000\200@\000\000\200?\000\000\240@\000\000\240@\000\000\200@\000\000\200@\000\000\200@\000\000\240@\000\000\200?\000\000\240@\000\000\220A\000\000\240@\000\000\000@\000\000\200@\000\000@@\000\000\000@\000\000@@\000\000\000@\000\000\000@\000\000\000@\000\000@@\000\000\200@\000\000\000@\000\000\000@\000\000\200@\000\000\240@\000\000\200@\000\000\240@\000\000\200?\000\000@@\000\000\200@\000\000\000@\000\000@@\000\000\240@\000\000\240@\000\000@@\000\000\000@\000\000\240@\000\000@@\000\000@@\000\000\200@\000\000\000@\000\000\000@\000\000\340@\000\000\240@\000\000@@\000\000\000@\000\000\240@\000\000\200@\000\000\200@\000\000\200@\000\000\000@\000\000\200?\000\000\000@\000\000@@\000\000\300@\000\000\000@\000\000\200@\000\000\240@\000\000\240@\000\000\240@\000\000\240@\000\000\000@\000\000\200@\000\000\200@\000\000\000@\000\000@@\000\000\000@\000\000\200@\000\000\200@\000\000\200@\000\000@@\000\000\200@\000\000\000@\000\000\200@\000\000\200?\000\000\200@\000\000@@\000\000@@\000\000\200@\000\000\300@\000\000@@\000\000@@\000\000\000@\000\000\000@\000\000\200@\000\000\200@\000\000@@\000\000\240@\000\000\200?\000\000\200@\000\000\000@\000\000\200@\000\000\000@\000\000\240@\000\000\000@\000\000\240@\000\000\200@\000\000\000@\000\000\200@\000\000@@\000\000\000@\000\000\200@\000\000@@\000\000@@\000\000\200@\000\000@@\000\000@@\000\000\300@\000\000\000@\000\000@@\000\000\200@\000\000@@\000\000\000@\000\000@@\000\000@@\000\000\200@\000\000@@\000\000\200@\000\000\200@\000\000\200?\000\000@@\000\000\000@\000\000@@\000\000@@\000\000\000@\000\000@@\000\000\000@\000\000@@\000\000\000@\000\000\200@\000\000@@\000\000\240@\000\000\000@\000\000 A\000\000\000@\000\000@@\000\000@@\000\000\200@\000\000\200@\000\000@@\000\000\200@\000\000@@\000\000@@\000\000\000@\000\000\000@\000\000@@\000\000\000@\000\000\000@\000\000\240@\000\000@@\000\000\200?\000\000\200@\000\000\200@\000\000\200@\000\000@@\000\000\000@\000\000\000A\000\000\000@\000\000@@\000\000\300@\000\000\200@\000\000\200?\000\000@@\000\000@@\000\000\200@\000\000@@\000\000\200@\000\000\200@\000\000\000@\000\000@@\000\000\240@\000\000@@\000\000\240@\000\000@@\000\000\240@\000\000\000@\000\000\200@\000\000\000@\000\000\000@\000\000\200@\000\000@@\000\000@@\000\000\200@\000\000\000@\000\000\000@\000\000\240@\000\000\300@\000\000\240@\000\000@A\000\000@@\000\000\000@\000\000@@\000\000@@\000\000\000@\000\000\000@\000\000@@\000\000\000@\000\000\000@\000\000\240@\000\000\240@\000\000@@\000\000\000@\000\000\240@\000\000\200@\000\000@@\000\000@@\000\000@@\000\000\000@\000\000\300@\000\000\200?\000\000@@\000\000\200@\000\000\000@\000\000@@\000\000\000@\000\000\240@\000\000\200@\000\000\200?\000\000@@\000\000\240@\000\000\200@\000\000\200?\000\000@@\000\000@@\000\000\200@\000\000@@\000\000@@\000\000@@\000\000@@\000\000@@\000\000@@\000\000\200@\000\000\000@\000\000\000@\000\000\200@\000\000@@\000\000\240@\000\000\240@\000\000\200?\000\000\300@\000\000\000@\000\000\240@\000\000\000@\000\000\000@\000\000\200@\000\000@@\000\000@@\000\000@@\000\000@@\000\000\240@\000\000@@\000\000\000@\000\000\000@\000\000\200@\000\000@@\000\000\200@\000\000@@\000\000\000@\000\000\200?\000\000\200@\000\000\200@\000\000\200@\000\000@@\000\000\200@\000\000\200@\000\000\000@\000\000@@\000\000@@\000\000\000@\000\000@@\000\000\200@\000\000\000@\000\000@@\000\000\000@\000\000@@\000\000@@\000\000@@\000\000\240@\000\000@@\000\000@@\000\000\200@\000\000@@\000\000\200@\000\000\000@\000\000\200?\000\000\240@\000\000\000@\000\000@@\000\000\200@\000\000@@\000\000\200@\000\000\200@\000\000\000@\000\000@@\000\000@@\000\000@@\000\000\000@\000\000@@\000\000\200@\000\000\000@\000\000@@\000\000@@\000\000@@\000\000@@\000\000@@\000\000\020A\000\000\200@\000\000\000@\000\000\000@\000\000@@\000\000\200@\000\000\200@\000\000\200@\000\000@@\000\000\000@\000\000@@\000\000\200?\000\000\240@\000\000@@\000\000\000@\000\000\240@\000\000\240@\000\000\240@\000\000\240@\000\000@@\000\000\200@\000\000\000@\000\000\000@\000\000\240@\000\000@@\000\000\000@\000\000\000@\000\000@@\000\000\200@\000\000\000@\000\000\200@\000\000\200@\000\000\000@\000\000\200@\000\000@@\000\000\200@\000\000\200@\000\000\200@\000\000@@\000\000\240@\000\000\000@\000\000\000@\000\000@@\000\000@@\000\000\000@\000\000\000@\000\000\000@\000\000\000@\000\000@@\000\000\000@\000\000\200?\000\000@@\000\000\300@\000\000@@\000\000\200@\000\000\240@\000\000@@\000\000\000@\000\000@@\000\000@@\000\000\240@\000\000\200?\000\000@@\000\000\000@\000\000\200?\000\000\000@\000\000\000@\000\000@@\000\000@@\000\000\200?\000\000\200@\000\000\240@\000\000\000@\000\000@@\000\000\000@\000\000\200@\000\000@@\000\000\240@\000\000\000@\000\000\000@\000\000\200@\000\000\200@\000\000\240@\000\000@@\000\000\000@\000\000\000@\000\000\200?\000\000@@\000\000\200?\000\000@@\000\000\000@\000\000\200@\000\000\000@\000\000@@\000\000\200?\000\000\000@\000\000@@\000\000@@\000\000\200@\000\000\200?\000\000\200@\000\000\340@\000\000\200@\000\000\200@\000\000@@\000\000\200@\000\000@@\000\000\340@\000\000@@\000\000\300@\000\000\000@\000\000\200?\000\000\200@\000\000\200@\000\000\240@\000\000\200@\000\000\200@\000\000@@\000\000\000@\000\000\200@\000\000\000@\000\000\200@\000\000\000@\000\000\200@\000\000\200@\000\000\000@\000\000@@\000\000\000@\000\000\200@\000\000\240@\000\000@@\000\000\240@\000\000\000@\000\000\200@\000\000\000@\000\000\200@\000\000@@\000\000\000@\000\000\200@\000\000\240@\000\000\200@\000\000\240@\000\000@@\000\000@@\000\000\240@\000\000\000@\000\000\200@\000\000@@\000\000\200@\000\000\000@\000\000\000@\000\000\240@\000\000\000@\000\000\000@\000\000\200@\000\000\200@\000\000\200@\000\000\200@\000\000\240@\000\000\020A\000\000@@\000\000\000@\000\000\000@\000\000\200@\000\000\200@\000\000\200@\000\000@@\000\000@@\000\000@@\000\000@@\000\000\000@\000\000\000@\000\000@@\000\000\000@\000\000\200@\000\000\240@\000\000\300@\000\000@@\000\000@@\000\000 A\000\000@@\000\000\300@\000\000\240@\000\000\000@\000\000\240@\000\000@@\000\000\200@\000\000@@\000\000\200@\000\000@@\000\000\000@\000\000@@\000\000@@\000\000\200?\000\000\200@\000\000\200@\000\000\200?\000\000\200@\000\000\240@\000\000\000@\000\000\000@\000\000\000@\000\000\200@\000\000\000@\000\000@@\000\000\000@\000\000\240@\000\000\200@\000\000\000@\000\000@@\000\000@@\000\000\200@\000\000@@\000\000\300@\000\000@@\000\000\200@\000\000@@\000\000\000@\000\000@@\000\000\000@\000\000\000@\000\000\000@\000\000\240@\000\000@@\000\000\000@\000\000\200@\000\000\000@\000\000\000@\000\000@@\000\000\200@\000\000@@\000\000\200@\000\000\000@\000\000@@\000\000\200@\000\000\200?\000\000\000@\000\000@@\000\000\200@\000\000@@\000\000\200@\000\000@@\000\000@@\000\000\200@\000\000\200@\000\000@@\000\000\200@\000\000\200@\000\000\000@\000\000\200@\000\000\000@\000\000@@\000\000@@\000\000\000@\000\000\200@\000\000\200@\000\000\200@\000\000\200?\000\000\000@\000\000\200@\000\000@@\000\000\000@\000\000\200@\000\000\000@\000\000@@\000\000\200@\000\000@@\000\000\200?\000\000\200?\000\000@@\000\000\200?\000\000\200?\000\000\000@\000\000@@\000\000@@\000\000\200@\000\000\000@\000\000\200?\000\000\200@\000\000\000@\000\000@@\000\000\000@\000\000@@\000\000@@\000\000\000A\000\000@@\000\000\200@\000\000\200@\000\000\240@\000\000\200@\000\000@@\000\000@@\000\000@@\000\000@@\000\000\200?\000\000\300@\000\000\000@\000\000\200@\000\000\000@\000\000\240@\000\000\200@\000\000@@\000\000@@\000\000@@\000\000\200@\000\000@@\000\000\200@\000\000@@\000\000\240@\000\000\200@\000\000@@\000\000\000@\000\000\200@\000\000@@\000\000\000@\000\000\000@\000\000\200@\000\000\000@\000\000\240@\000\000\240@\000\000@@\000\000\000@\000\000\200@\000\000\240@\000\000\340@\000\000@@\000\000\000@\000\000@@\000\000@@\000\000\200@\000\000\000@\000\000@@\000\000\000@\000\000@@\000\000\200@\000\000\300@\000\000\200?\000\000@@\000\000@@\000\000\000@\000\000@@\000\000@@\000\000@@\000\000@@\000\000@@\000\000@@\000\000@@\000\000@@\000\000\000@\000\000\200@\000\000\240@\000\000\240@\000\000\200@\000\000@@\000\000@@\000\000@@\000\000@@\000\000\240@\000\000\000@\000\000\200@\000\000\200@\000\000\200?\000\000\200@\000\000@@\000\000@@\000\000@@\000\000@@\000\000\200?\000\000\000@\000\000\000@\000\000@@\000\000@@\000\000@@\000\000\000@\000\000\000@\000\000\200?\000\000\000@\000\000@@\000\000@@\000\000\000@\000\000\200@\000\000\200@\000\000\000@\000\000\300@\000\000@@\000\000@@\000\000@@\000\000\240@\000\000\200@\000\000@@\000\000\000@\000\000@@\000\000\000@\000\000@@\000\000@@\000\000\300@\000\000\240@\000\000@@\000\000\000@\000\000\300@\000\000\200?\000\000\000@\000\000\000@\000\000\200@\000\000\240@\000\000\200?\000\000@@\000\000\200?\000\000\200?\000\000\000@\000\000@@\000\000\200@\000\000\240@\000\000\000@\000\000\000@\000\000\200@\000\000@@\000\000\000@\000\000\200@\000\000\240@\000\000@@\000\000@@\000\000@@\000\000\240@\000\000\200?\000\000@@\000\000\200@\000\000@@\000\000@@\000\000\000@\000\000@@\000\000\200@\000\000@@\000\000\200@\000\000\200?\000\000\240@\000\000@@\000\000\000@\000\000\200@\000\000@@\000\000@@\000\000\000@\000\000\000@\000\000\200@\000\000@@\000\000\200?\000\000@@\000\000\000@\000\000\000@\000\000\000@\000\000@@\000\000\000@\000\000\240@\000\000\240@\000\000\240@\000\000\000@\000\000\200@\000\000\200@\000\000@@\000\000\000@\000\000@@\000\000@@\000\000@@\000\000@@\000\000@@\000\000\000@\000\000@@\000\000@@\000\000\000@\000\000\240@\000\000\000@\000\000@@\000\000@@\000\000\240@\000\000\000A\000\000@@\000\000\200@\000\000\200@\000\000\000@\000\000\000@\000\000\240@\000\000\200?\000\000\240@\000\000\000@\000\000@@\000\000@@\000\000@@\000\000@@\000\000@@\000\000@@\000\000@@\000\000\200@\000\000\200@\000\000@@\000\000@@\000\000@@\000\000\200?\000\000\240@\000\000\240@\000\000\200?\000\000\200?\000\000@@\000\000\200?\000\000\240@\000\000\200@\000\000\200@\000\000\200@\000\000\000@\000\000\000@\000\000@@\000\000\000@\000\000@@\000\000\300@\000\000\200@\000\000@@\000\000\000@\000\000\200@\000\000@@\000\000@@\000\000\240@\000\000\200@\000\000\200@\000\000\200@\000\000\000@\000\000\000@\000\000\200@\000\000@@\000\000@@\000\000\240@\000\000\200@\000\000\240@\000\000@@\000\000@@\000\000@@\000\000@@\000\000@@\000\000\240@\000\000\200@\000\000@@\000\000\000@\000\000\000@\000\000@@\000\000\200@\000\000@@\000\000\200@\000\000\000@\000\000@@\000\000\200@\000\000\000@\000\000\000@\000\000@@\000\000@@\000\000@@\000\000@@\000\000@@\000\000\200@\000\000@@\000\000@@\000\000\200?\000\000\240@\000\000\200@\000\000@@\000\000\000@\000\000\240@\000\000@@\000\000@@\000\000@@\000\000\200@\000\000\200@\000\000\200@\000\000\000@\000\000@@\000\000\000@\000\000\000@\000\000@@\000\000\200@\000\000\240@\000\000\240@\000\000\200@\000\000@@\000\000\200@\000\000\000@\000\000\200@\000\000@@\000\000@@\000\000\000@\000\000\300@\000\000\200@\000\000\240@\000\000\000@\000\000\000@\000\000\200@\000\000\240@\000\000\200@\000\000@@\000\000\000@\000\000\000@\000\000\000@\000\000\200@\000\000\200@\000\000\000@\000\000\200@\000\000\200?\000\000\000@\000\000\200@\000\000@@\000\000\000@\000\000\200?\000\000@@\000\000\200@\000\000\240@\000\000\000@\000\000\000@\000\000\000@\000\000\000@\000\000\200?\000\000\240@\000\000\200?\000\000@@\000\000\000@\000\000@@\000\000@@\000\000@@\000\000\000@\000\000\200@\000\000@@\000\000\000@\000\000@@\000\000\000@\000\000\240@\000\000\240@\000\000\000@\000\000\240@\000\000@@\000\000\000@\000\000\200@\000\000\000@\000\000\200@\000\000\200?\000\000\200?\000\000\200@\000\000\200@\000\000@@\000\000\000@\000\000@@\000\000\300@\000\000\200?\000\000@@\000\000@@\000\000\000@\000\000@@\000\000@@\000\000@@\000\000\240@\000\000\200@\000\000\200@\000\000\000@\000\000\000@\000\000\000@\000\000@@\000\000@@\000\000\200@\000\000\000@\000\000\240@\000\000@@\000\000\200?\000\000\240@\000\000@@\000\000\240@\000\000\200@\000\000\000@\000\000\200@\000\000\200@\000\000\000@\000\000@@\000\000\200@\000\000\200?\000\000\200?\000\000\200?\000\000@@\000\000\000@\000\000\200@\000\000\240@\000\000@@\000\000@@\000\000\200@\000\000\000@\000\000@@\000\000\000@\000\000\200?\000\000\200@\000\000\000@\000\000\200@\000\000@@\000\000\000@\000\000@@\000\000\200@\000\000\000@\000\000\200@\000\000@@\000\000\000@\000\000\200@\000\000\300@\000\000\000@\000\000\200?\000\000@@\000\000@@\000\000\240@\000\000@@\000\000@@\000\000\000@\000\000\240@\000\000\000@\000\000@@\000\000@@\000\000\200@\000\000\200@\000\000\200?\000\000\240@\000\000\200?\000\000\000@\000\000@@\000\000@@\000\000@@\000\000\240@\000\000\000@\000\000\000@\000\000@@\000\000@@\000\000\000@\000\000@@\000\000\240@\000\000\000@\000\000\200@\000\000\000@\000\000\240@\000\000\200@\000\000\340@\000\000\340@\000\000@@\000\000\200?\000\000@@\000\000\240@\000\000\200@\000\000\200@\000\000@@\000\000\200@\000\000@@\000\000\240@\000\000@@\000\000\200@\000\000\000@\000\000\240@\000\000@@\000\000@@\000\000@@\000\000\200@\000\000\200@\000\000\200@\000\000@@\000\000\200@\000\000\000@\000\000\240@\000\000@@\000\000\200@\000\000@@\000\000\000@\000\000@@\000\000@@\000\000\200?\000\000\200@\000\000\200@\000\000@@\000\000\200?\000\000@@\000\000\200@\000\000\240@\000\000\000@\000\000@@\000\000@@\000\000@@\000\000@@\000\000\200@\000\000@@\000\000\200@\000\000\000@\000\000\200@\000\000\240@\000\000\000@\000\000@@\000\000\000@\000\000\200@\000\000@@\000\000\000@\000\000@@\000\000\240@\000\000@@\000\000\200@\000\000\200?"
      }
    }
  }
}
node {
  name: "Const_1"
  op: "Const"
  attr {
    key: "_output_shapes"
    value {
      list {
        shape {
          dim {
            size: 1660
          }
        }
      }
    }
  }
  attr {
    key: "dtype"
    value {
      type: DT_FLOAT
    }
  }
  attr {
    key: "value"
    value {
      tensor {
        dtype: DT_FLOAT
        tensor_shape {
          dim {
            size: 1660
          }
        }
        tensor_content: "\000\000\200@\000\000@@\000\000@@\000\000\000@\000\000@@\000\000@@\000\000@@\000\000\000@\000\000`@\000\000\200?\000\000\000@\000\000\300@\000\000\200?\000\000\240@\000\000@@\000\000\000@\000\000\200@\000\000\240@\000\000\240@\000\000\000@\000\000\000@\000\000\200?\000\000\300?\000\000\000@\000\000\000@\000\000\200?\000\000\240@\000\000\000@\000\000\000@\000\000\000@\000\000@@\000\000\000@\000\000\200@\000\000\240@\000\000 @\000\000\000@\000\000\000@\000\000\000@\000\000\200?\000\000\000@\000\000@@\000\000\000@\000\000\000@\000\000\000@\000\000\000@\000\000\200@\000\000\000@\000\000@@\000\000\200?\000\000\240@\000\000\000@\000\000\000@\000\000\200?\000\000@@\000\000\200?\000\000\200?\000\000\200?\000\000\200@\000\000\000@\000\000@@\000\000\000@\000\000\200?\000\000\240@\000\000\000@\000\000 @\000\000\200?\000\000\000@\000\000\200?\000\000\000@\000\000\200?\000\000\200?\000\000\000@\000\000@@\000\000\000@\000\000\000@\000\000\000@\000\000\000@\000\000@@\000\000@@\000\000\340@\000\000\200?\000\000\000@\000\000\240@\000\000@@\000\000@@\000\000\000@\000\000@@\000\000\000@\000\000@@\000\000\000@\000\000\200?\000\000\000@\000\000\000@\000\000@@\000\000\000@\000\000\200?\000\000\000@\000\000\200?\000\000@@\000\000\240@\000\000\240@\000\000\000@\000\000@@\000\000\200?\000\000\000@\000\000\200?\000\000@@\000\000\000@\000\000\000@\000\000\000@\000\000\200?\000\000\000@\000\000\000@\000\000\220@\000\000\000@\000\000\000@\000\000\000@\000\000@@\000\000\000@\000\000\000@\000\000\200@\000\000@@\000\000@@\000\000@@\000\000\340@\000\000\240@\000\000\200@\000\000\240@\000\000\200?\000\000\000@\000\000\000@\000\000\200@\000\000\300@\000\000\200@\000\000@@\000\000\000@\000\000\200@\000\000@@\000\000@@\000\000\200?\000\000@@\000\000\200?\000\000\000@\000\000@@\000\000\000@\000\000\000@\000\000@@\000\000\000@\000\000\000@\000\000\240@\000\000\000@\000\000@@\000\000\000@\000\000\200?\000\000\000@\000\000\000@\000\000\000@\000\000\200?\000\000\000@\000\000\000@\000\000\200@\000\000\200?\000\000\000@\000\000\200@\000\000\000@\000\000@@\000\000@@\000\000\200?\000\000\000@\000\000\000@\000\000`@\000\000@@\000\000\000@\000\000\300@\000\000\000@\000\000@@\000\000\000@\000\000@@\000\000\000@\000\000\200?\000\000@@\000\000`@\000\000@@\000\000@@\000\000@@\000\000\000@\000\000\200?\000\000\200@\000\000\000@\000\000\240@\000\000@@\000\000@@\000\000\200?\000\000@@\000\000\000@\000\000\200?\000\000\200?\000\000@@\000\000\000@\000\000\240@\000\000@@\000\000\200@\000\000\000@\000\000@@\000\000\000A\000\000\000@\000\000\000@\000\000\240@\000\000\000A\000\000\200@\000\000\200?\000\000@@\000\000@@\000\000@@\000\000\000@\000\000\200@\000\000@@\000\000\200?\000\000 A\000\000@@\000\000\200@\000\000\200@\000\000\000@\000\000\200?\000\000\000@\000\000@@\000\000\000@\000\000\000@\000\000\000@\000\000@@\000\000@@\000\000\240@\000\000\000@\000\000\240@\000\000\000@\000\000@@\000\000\200?\000\000\000@\000\000\200@\000\000\200?\000\000\000@\000\000\000@\000\000@@\000\000@@\000\000\200@\000\000@@\000\000\200@\000\000\000@\000\000\200?\000\000@@\000\000@@\000\000\000@\000\000@@\000\000\000@\000\000@@\000\000\200?\000\000@@\000\000\200?\000\000\000@\000\000\000@\000\000\000@\000\000\000@\000\000\300@\000\000@@\000\000@@\000\000\000@\000\000\200@\000\000@@\000\000\000@\000\000\000@\000\000@@\000\000\000\000\000\000\200?\000\000\200@\000\000\200?\000\000@@\000\000\000@\000\000\300@\000\000\200@\000\000\240@\000\000@@\000\000\200@\000\000\240@\000\000\260@\000\000\000A\000\000\000@\000\000\000@\000\000@@\000\000\000@\000\000\000@\000\000@@\000\000@@\000\000@@\000\000\200?\000\000@@\000\000@@\000\000\000@\000\000@@\000\000\000@\000\000\200@\000\000\000@\000\000\000@\000\000@@\000\000\000@\000\000\000@\000\000\000@\000\000@@\000\000\000@\000\000\000@\000\000\200?\000\000@@\000\000\200@\000\000@@\000\000@@\000\000\000@\000\000\000@\000\000\000@\000\000\000@\000\000\300@\000\000\000@\000\000@@\000\000@@\000\000\200?\000\000\200?\000\000\000@\000\000@@\000\000\000@\000\000 @\000\000\000@\000\000\200?\000\000\000@\000\000\000A\000\000\200?\000\000\000@\000\000\000@\000\000\000@\000\000@@\000\000\000@\000\000\200?\000\000@@\000\000\000@\000\000@@\000\000\200?\000\000@@\000\000@@\000\000\240@\000\000\000@\000\000\000@\000\000@@\000\000\200?\000\000\200?\000\000\000@\000\000\240@\000\000\000@\000\000\000@\000\000\200?\000\000\340@\000\000@@\000\000\000@\000\000@@\000\000\000@\000\000@@\000\000\200?\000\000\300@\000\000\340@\000\000\000@\000\000\000A\000\000\000@\000\000\000\000\000\000@@\000\000\320@\000\000\240@\000\000\000@\000\000@@\000\000@@\000\000\200?\000\000\000@\000\000\000@\000\000\240@\000\000\000@\000\000\200?\000\000@@\000\000\000@\000\000\000@\000\000@@\000\000\000@\000\000\000@\000\000@@\000\000\240@\000\000\000@\000\000\200?\000\000\200?\000\000\000@\000\000\200@\000\000\000@\000\000\300?\000\000\000@\000\000\000@\000\000@@\000\000\000@\000\000\000@\000\000\000@\000\000\200@\000\000\340@\000\000@@\000\000\000@\000\000@@\000\000@@\000\000\200@\000\000\000@\000\000\200?\000\000\000@\000\000\000@\000\000@@\000\000@@\000\000\000@\000\000\240@\000\000@@\000\000@@\000\000@@\000\000\000@\000\000@@\000\000\240@\000\000\000@\000\000 @\000\000\200?\000\000\000@\000\000@@\000\000@@\000\000@@\000\000\340@\000\000\000@\000\000@@\000\000@@\000\000\200@\000\000@@\000\000\200@\000\000\000@\000\000@@\000\000\200@\000\000 @\000\000@@\000\000\000@\000\000@@\000\000@@\000\000\000@\000\000\000@\000\000@@\000\000@@\000\000@@\000\000\000@\000\000\200?\000\000@@\000\000\000@\000\000\000@\000\000\000@\000\000\000@\000\000\000@\000\000\000@\000\000\000@\000\000`@\000\000\200?\000\000\000@\000\000\000@\000\000@@\000\000\000@\000\000\000@\000\000\000@\000\000@@\000\000@@\000\000@@\000\000\340@\000\000\000\000\000\000\000@\000\000\000\000\000\000\200@\000\000\000@\000\000@@\000\000\300@\000\000\200?\000\000\000@\000\000\000@\000\000@@\000\000@@\000\000\000@\000\000\200?\000\000\000@\000\000\200@\000\000@@\000\000\200?\000\000\200@\000\000\240@\000\000\000@\000\000\200@\000\000\000@\000\000@@\000\000@@\000\000\000@\000\000\200?\000\000\200?\000\000@@\000\000\200@\000\000\000@\000\000\200@\000\000\000@\000\000\200?\000\000\000@\000\000\000@\000\000\000@\000\000\200?\000\000\000@\000\000@@\000\000@@\000\000\240@\000\000\200?\000\000@@\000\000\000A\000\000@@\000\000@@\000\000@@\000\000\000@\000\000@@\000\000\000@\000\000\200?\000\000\000@\000\000\200?\000\000@@\000\000\000@\000\000\300@\000\000@@\000\000\000@\000\000@@\000\000\000@\000\000\000@\000\000\300@\000\000\000@\000\000\200?\000\000\200?\000\000\340@\000\000\300@\000\000@@\000\000\200?\000\000\000@\000\000\000@\000\000\000@\000\000@@\000\000\000@\000\000\000@\000\000\000@\000\000\200?\000\000@@\000\000\200@\000\000@@\000\000@@\000\000@@\000\000@@\000\000\200?\000\000@@\000\000\240@\000\000`@\000\000\300@\000\000\200@\000\000\240@\000\000\200?\000\000\300@\000\000\220A\000\000@@\000\000\200?\000\000@@\000\000 @\000\000\200?\000\000\000@\000\000@@\000\000\200?\000\000\200?\000\000@@\000\000\200@\000\000\000@\000\000\000@\000\000\000@\000\000\200@\000\000\240@\000\000\340@\000\000\200?\000\000\000@\000\000@@\000\000\000@\000\000\000@\000\000\200@\000\000@@\000\000`@\000\000\000@\000\000@@\000\000\000@\000\000\000@\000\000\240@\000\000\200?\000\000\000@\000\000\320@\000\000@@\000\000\000@\000\000\000@\000\000\300@\000\000\240@\000\000@@\000\000@@\000\000\000@\000\000\000@\000\000\000@\000\000\000@\000\000\300@\000\000\240@\000\000@@\000\000@@\000\000\260@\000\000\300@\000\000@@\000\000\000@\000\000@@\000\000@@\000\000\200?\000\000\000@\000\000\000@\000\000@@\000\000\200@\000\000\000@\000\000@@\000\000\200@\000\000\200?\000\000@@\000\000\000@\000\000\000@\000\000\000@\000\000\000@\000\000\200@\000\000\240@\000\000\000@\000\000\000@\000\000\000@\000\000@@\000\000\000@\000\000@@\000\000\000@\000\000@@\000\000\200?\000\000\000@\000\000\200?\000\000@@\000\000\000@\000\000\000@\000\000\200?\000\000\000@\000\000@@\000\000\000@\000\000@@\000\000@@\000\000\000@\000\000\000@\000\000\200?\000\000\000@\000\000\240@\000\000@@\000\000\200?\000\000\300@\000\000\000@\000\000\200@\000\000\000@\000\000\000@\000\000\000@\000\000\000@\000\000\000@\000\000@@\000\000\200@\000\000\000@\000\000\300@\000\000\200?\000\000@@\000\000\000@\000\000\000@\000\000\000@\000\000 @\000\000\200?\000\000\000@\000\000\000@\000\000@@\000\000@@\000\000\000@\000\000@@\000\000@@\000\000 A\000\000\000@\000\000\200?\000\000\000@\000\000@@\000\000@@\000\000\000@\000\000`@\000\000\000@\000\000@@\000\000\000@\000\000\240@\000\000\000@\000\000\000@\000\000\200?\000\000\200@\000\000@@\000\000\200?\000\000\000@\000\000@@\000\000 @\000\000\000@\000\000\000@\000\000\000\000\000\000\000@\000\000@@\000\000\300@\000\000@@\000\000\200?\000\000\000@\000\000@@\000\000\000@\000\000\000@\000\000@@\000\000\000\000\000\000\000@\000\000\200?\000\000\000\000\000\000\000@\000\000\000\000\000\000\000@\000\000\340@\000\000\000@\000\000\000@\000\000@@\000\000\200?\000\000\000@\000\000@@\000\000\000@\000\000\200@\000\000\000@\000\000\200?\000\000@@\000\000`@\000\000\300@\000\000\200A\000\000\000@\000\000\200?\000\000\000@\000\000\000@\000\000\000@\000\000\000@\000\000@@\000\000\000@\000\000@@\000\000\340@\000\000\200@\000\000@@\000\000\000@\000\000@@\000\000\200@\000\000\000@\000\000\000@\000\000 @\000\000@@\000\000\240@\000\000\200?\000\000\000@\000\000\200@\000\000\000@\000\000\000@\000\000\000@\000\000\240@\000\000\200@\000\000\200?\000\000@@\000\000@@\000\000\200@\000\000\200?\000\000\000@\000\000\000@\000\000\000@\000\000@@\000\000@@\000\000 @\000\000@@\000\000@@\000\000@@\000\000\000@\000\000\020@\000\000\000@\000\000@@\000\000\000@\000\000@@\000\000\240@\000\000\200?\000\000@@\000\000\000@\000\000@@\000\000\000@\000\000\200?\000\000\200@\000\000\200?\000\000\000@\000\000\000@\000\000\200@\000\000@@\000\000@@\000\000\000@\000\000\000@\000\000\000@\000\000\000@\000\000@@\000\000\000@\000\000\200?\000\000\200?\000\000\000@\000\000@@\000\000@@\000\000@@\000\000@@\000\000@@\000\000\200?\000\000\000@\000\000@@\000\000\000@\000\000\200?\000\000\240@\000\000\000@\000\000@@\000\000\200?\000\000@@\000\000\200?\000\000 @\000\000\200@\000\000\200?\000\000\000@\000\000@@\000\000\000@\000\000@@\000\000\000@\000\000\200?\000\000\340@\000\000@@\000\000\000\000\000\000\340@\000\000\200?\000\000 @\000\000\000@\000\000@@\000\000@@\000\000\000@\000\000\000@\000\000@@\000\000\000@\000\000@@\000\000\000@\000\000@@\000\000@@\000\000@@\000\000\000@\000\000@@\000\000\240@\000\000\200@\000\000\000@\000\000\200?\000\000\000\000\000\000@@\000\000`@\000\000\200@\000\000\200@\000\000\000@\000\000\000@\000\000\200?\000\000\240@\000\000\200?\000\000\000@\000\000\340@\000\000@@\000\000\300@\000\000\340@\000\000\000@\000\000\200@\000\000\200?\000\000\200?\000\000\300@\000\000\200@\000\000\200?\000\000\000@\000\000\000@\000\000@@\000\000\000@\000\000\000@\000\000@@\000\000\000@\000\000\000@\000\000\000@\000\000@@\000\000\200@\000\000@@\000\000\200@\000\000\200@\000\000\000@\000\000\000@\000\000@@\000\000\000@\000\000\000@\000\000\000@\000\000\000@\000\000\200?\000\000\000@\000\000\000@\000\000\200?\000\000\000@\000\000\000A\000\000\000@\000\000@@\000\000\000A\000\000\000@\000\000@@\000\000\000@\000\000\000@\000\000\200@\000\000\000@\000\000\000@\000\000\200?\000\000\200?\000\000\000@\000\000\200?\000\000\200?\000\000@@\000\000\200?\000\000@@\000\000\340@\000\000\300?\000\000\000@\000\000\200?\000\000@@\000\000\000@\000\000\200@\000\000@@\000\000@@\000\000\000@\000\000\000@\000\000\320@\000\000\200?\000\000\000@\000\000\000@\000\000\200?\000\000\000@\000\000\200?\000\000\000@\000\000\200?\000\000\000@\000\000\000@\000\000\000@\000\000\200?\000\000\000@\000\000@@\000\000@@\000\000 @\000\000\200?\000\000@@\000\000\030A\000\000\200@\000\000\000@\000\000\000@\000\000@@\000\000 @\000\000\200@\000\000\000@\000\000 A\000\000\000@\000\000\200?\000\000@@\000\000@@\000\000\200@\000\000@@\000\000\200@\000\000\200?\000\000\200?\000\000\000@\000\000\000@\000\000@@\000\000\000@\000\000@@\000\000@@\000\000\200?\000\000\000@\000\000\200?\000\000\000@\000\000\300@\000\000@@\000\000\300@\000\000\000@\000\000@@\000\000\000@\000\000\200@\000\000@@\000\000\200?\000\000\000@\000\000\200@\000\000\200@\000\000\200@\000\000@@\000\000\000@\000\000@@\000\000\000@\000\000\000@\000\000@@\000\000@@\000\000\000@\000\000\200?\000\000@@\000\000\000@\000\000\000@\000\000\240@\000\000@@\000\000@@\000\000@@\000\000@A\000\000\340@\000\000\000@\000\000\000@\000\000\000@\000\000@@\000\000\200@\000\000@@\000\000\000@\000\000\000@\000\000\200?\000\000\000@\000\000\000@\000\000\000@\000\000\200@\000\000\000@\000\000\000@\000\000\300@\000\000\240@\000\000\000@\000\000@@\000\000\260A\000\000\000@\000\000@@\000\000\240@\000\000\000@\000\000@@\000\000\000@\000\000\200@\000\000\000@\000\000\000@\000\000\000@\000\000\000@\000\000\200?\000\000@@\000\000\200?\000\000\240@\000\000\240@\000\000\000@\000\000\300@\000\000\200@\000\000\000@\000\000\200?\000\000\000@\000\000@@\000\000\000@\000\000@@\000\000\200?\000\000\200@\000\000`@\000\000\200?\000\000\200@\000\000\000@\000\000@@\000\000@@\000\000\020A\000\000\000@\000\000@@\000\000\000@\000\000@@\000\000@@\000\000\200?\000\000\000@\000\000\200?\000\000\240@\000\000@@\000\000\000@\000\000@@\000\000\000@\000\000\000@\000\000@@\000\000@@\000\000\000@\000\000\200@\000\000\000@\000\000\000@\000\000\240@\000\000\200?\000\000\200?\000\000\000@\000\000\000@\000\000\000@\000\000\000@\000\000\000@\000\000\000@\000\000@@\000\000@@\000\000\000@\000\000\200@\000\000`@\000\000\200?\000\000\240@\000\000\000@\000\000\000@\000\000@@\000\000\000@\000\000\200@\000\000\200@\000\000\000@\000\000\200?\000\000@@\000\000\000@\000\000\000@\000\000\200?\000\000@@\000\000\000@\000\000\000@\000\000\000@\000\000\000@\000\000\200?\000\000\200?\000\000\000@\000\000\200?\000\000\200?\000\000\000@\000\000@@\000\000\000@\000\000\000@\000\000\000@\000\000\200?\000\000@@\000\000\000@\000\000\000@\000\000\000@\000\000\000@\000\000\240@\000\000\340@\000\000\000@\000\000@@\000\000`@\000\000@@\000\000\240@\000\000\000@\000\000 @\000\000\000@\000\000\000@\000\000\200?\000\000@A\000\000\000@\000\000\000@\000\000\000@\000\000\300@\000\000@@\000\000\000@\000\000\200?\000\000\000@\000\000\240@\000\000\200?\000\000\300@\000\000\200?\000\000@@\000\000@@\000\000\000@\000\000\000@\000\000\000@\000\000@@\000\000\200?\000\000\000@\000\000@@\000\000\000@\000\000\200@\000\000@@\000\000\000@\000\000\000@\000\000\200@\000\000\200@\000\000@@\000\000\000@\000\000@@\000\000@@\000\000\000@\000\000@@\000\000@@\000\000\000@\000\000@@\000\000\200?\000\000@@\000\000@@\000\000\200?\000\000@@\000\000@@\000\000\000@\000\000@@\000\000\000@\000\000\000@\000\000\000@\000\000@@\000\000@@\000\000@@\000\000\000@\000\000\000@\000\000@@\000\000\200@\000\000@@\000\000@@\000\000\000@\000\000\000@\000\000@@\000\000\000@\000\000\300@\000\000\000@\000\000@@\000\000\200@\000\000\200?\000\000\000@\000\000\000@\000\000\200@\000\000\000@\000\000\000@\000\000\200?\000\000\000@\000\000\000@\000\000\000@\000\000\000\000\000\000\000@\000\000 @\000\000\000@\000\000\200?\000\000\000@\000\000\000@\000\000\200@\000\000\200?\000\000\240@\000\000@@\000\000\000@\000\000\200@\000\000\000@\000\000\000@\000\000\200@\000\000\240@\000\000\200@\000\000\000@\000\000\000@\000\000\000\000\000\000\300?\000\000@@\000\000\000@\000\000\200@\000\000@@\000\000@@\000\000\200?\000\000\300@\000\000\200?\000\000\200?\000\000\200?\000\000 @\000\000@@\000\000\200?\000\000\000@\000\000\000@\000\000\200?\000\000\200?\000\000@@\000\000@@\000\000@@\000\000\000@\000\000\000@\000\000@@\000\000\000@\000\000\000@\000\000@@\000\000\000@\000\000\000@\000\000\000@\000\000\000@\000\000@A\000\000\200?\000\000@@\000\000`@\000\000\000@\000\000\000@\000\000\200?\000\000\000@\000\000@@\000\000\200?\000\000@@\000\000\200?\000\000\200@\000\000@@\000\000\000@\000\000\000@\000\000\000@\000\000\000@\000\000\000@\000\000\000@\000\000\240@\000\000\200?\000\000\200?\000\000\000@\000\000\000@\000\000\000@\000\000\000@\000\000\200?\000\000\200?\000\000@@\000\000\340@\000\000\240@\000\000\200?\000\000\240@\000\000@@\000\000\000@\000\000\000@\000\000\000@\000\000\000@\000\000@@\000\000\200?\000\000\000@\000\000\000@\000\000\000@\000\000\000@\000\000\200?\000\000\200@\000\000\200?\000\000\000@\000\000\200?\000\000\200@\000\000\300@\000\000@@\000\000\200@\000\000@@\000\000\000@\000\000\000@\000\000@@\000\000\200?\000\000\020A\000\000\000@\000\000\200?\000\000@@\000\000\000@\000\000\200@\000\000\000@\000\000\200@\000\000\000@\000\000\200@\000\000@@\000\000\000@\000\000\000@\000\000@@\000\000\200?\000\000\240@\000\000\240@\000\000\200?\000\000\200?\000\000\000@\000\000\200?\000\000\000A\000\000@@\000\000@@\000\000@@\000\000\200?\000\000\000@\000\000@@\000\000\000@\000\000@@\000\000\220@\000\000\200@\000\000\000@\000\000\000@\000\000\300@\000\000@@\000\000\000@\000\000\200@\000\000@@\000\000\000@\000\000@@\000\000\000@\000\000\000@\000\000\000@\000\000@@\000\000@@\000\000\000\000\000\000\200@\000\000@@\000\000\000@\000\000\000@\000\000@@\000\000\000@\000\000\000@\000\000\240@\000\000@@\000\000\000@\000\000\000@\000\000@@\000\000@@\000\000@@\000\000\000@\000\000@@\000\000\000@\000\000@@\000\000@@\000\000\000@\000\000\000@\000\000@@\000\000@@\000\000\300?\000\000\000@\000\000\200?\000\000@@\000\000\000@\000\000@@\000\000\200?\000\000\200@\000\000@@\000\000\000@\000\000\000@\000\000\200@\000\000\000@\000\000\000@\000\000@@\000\000\240@\000\000@@\000\000@@\000\000\000@\000\000\200?\000\000\000@\000\000\000@\000\000\000@\000\000\200@\000\000\240@\000\000@@\000\000\240@\000\000\200@\000\000@@\000\000\000@\000\000@@\000\000 @\000\000\000@\000\000\200?\000\000\240@\000\000@@\000\000\200@\000\000\200?\000\000\200?\000\000\000@\000\000\240@\000\000\220@\000\000\200?\000\000\000@\000\000\200?\000\000\000@\000\000\200@\000\000\000@\000\000\000@\000\000\000@\000\000\000@\000\000\000@\000\000`@\000\000\200@\000\000\000@\000\000\200?\000\000@@\000\000\200@\000\000\000@\000\000\200?\000\000\000@\000\000\000@\000\000\200?\000\000\200?\000\000\200@\000\000\200?\000\000\000@\000\000@@\000\000\000@\000\000@@\000\000@@\000\000\200?\000\000 @\000\000@@\000\000\000@\000\000\000@\000\000\000@\000\000@@\000\000\200@\000\000\000@\000\000\240@\000\000\000@\000\000\000@\000\000\200@\000\000\000@\000\000\000@\000\000\200?\000\000\200?\000\000\200@\000\000\200@\000\000@@\000\000@@\000\000\000@\000\000@@\000\000\200?\000\000@@\000\000\000@\000\000\000@\000\000@@\000\000\300@\000\000\000@\000\000\200@\000\000@@\000\000\200@\000\000@@\000\000\000@\000\000\000@\000\000@@\000\000\000@\000\000\000@\000\000\000@\000\000@@\000\000@@\000\000\200?\000\000\240@\000\000\000@\000\000\240@\000\000@@\000\000\000@\000\000\300@\000\000@@\000\000\000@\000\000\000@\000\000@@\000\000\000@\000\000\200?\000\000\200?\000\000 @\000\000\000@\000\000@@\000\000\200@\000\000\000@\000\000\000@\000\000@@\000\000\200?\000\000@@\000\000@@\000\000\200?\000\000@@\000\000\200?\000\000@@\000\000\000@\000\000\000@\000\000\000@\000\000\000@\000\000\000@\000\000\200@\000\000@@\000\000\000@\000\000\200?\000\000\240@\000\000\000@\000\000\200?\000\000\000@\000\000\000@\000\000\240@\000\000 @\000\000\000@\000\000\200?\000\000\200@\000\000\000@\000\000\200?\000\000@@\000\000\200@\000\000@@\000\000\200?\000\000\200@\000\000\200?\000\000\200?\000\000\200?\000\000@@\000\000\000@\000\000\240@\000\000\000@\000\000\000@\000\000 @\000\000@@\000\000@@\000\000\000@\000\000@@\000\000\000@\000\000@@\000\000\200?\000\000@@\000\000\000@\000\000\300@\000\000\300@\000\000\000@\000\000\200?\000\000@@\000\000\240@\000\000@@\000\000\200@\000\000@@\000\000@@\000\000\000@\000\000\200@\000\000\000@\000\000@@\000\000\200?\000\000\240@\000\000\000@\000\000\000@\000\000@@\000\000@@\000\000\000@\000\000@@\000\000\200@\000\000@@\000\000\000@\000\000@@\000\000@@\000\000\200@\000\000\000@\000\000\000@\000\000\200@\000\000\200?\000\000\200?\000\000\200@\000\000@@\000\000@@\000\000\200?\000\000\000@\000\000\240@\000\000\020A\000\000\200?\000\000@@\000\000\200?\000\000@@\000\000\000@\000\000\200@\000\000\000@\000\000\000@\000\000\200?\000\000@@\000\000\200@\000\000\000@\000\000\000@\000\000\200?\000\000\000@\000\000\000@\000\000\000@\000\000@@\000\000\240@\000\000@@\000\000\000@\000\000\200?"
      }
    }
  }
}
node {
  name: "Const_2"
  op: "Const"
  attr {
    key: "_output_shapes"
    value {
      list {
        shape {
          dim {
            size: 1660
          }
        }
      }
    }
  }
  attr {
    key: "dtype"
    value {
      type: DT_FLOAT
    }
  }
  attr {
    key: "value"
    value {
      tensor {
        dtype: DT_FLOAT
        tensor_shape {
          dim {
            size: 1660
          }
        }
        tensor_content: "\000H\235E\0000\030E\000\200\024E\000\300\235D\000\340\330D\000\320\030E\000@\022E\000\000\226D\000\000/E\000\000aD\000\340\232D\000X\341E\000\200RD\000\300ZE\000\300\005E\000\240\334D\000\000\026E\000\300PE\000`JE\000\000\001E\000@\267D\000\300ZD\000\300\246D\000P\rE\000\300\274D\000\0004D\000\310\253E\000\340\303D\000\340\370D\000\200^D\0000\036E\000\000\264D\000\000.E\000@HE\000\340\330D\000\000\264D\000`\245D\000 \216D\000\200\374C\000\300\313D\000 \nE\000\000\217D\000\000\322D\000\300YD\000\240\304D\000\300\327D\000\000\377D\000\240^E\000\000\204D\000@\202E\000\200\254D\000\000\234D\000\340\247D\000\300+E\000\200:D\000\000ID\000\000\177D\000 YE\000\340\234D\000\300\365D\000\300YD\000\000zD\000\300KE\000\000\232D\000\240\014E\000\000\226D\000\300\351D\000@!D\000`\274D\000\200\230D\000`\242D\000\000\274D\000\000/E\000\000\264D\000\200\204D\000\000\215D\000 \262D\000 \001E\000\000\347D\0008\364E\000\000zD\000\200cD\000 \262E\000\240<E\000\200/E\000\200\257D\000\240\310D\000@\304D\000`\350D\000\000\341D\000@#D\000\200\253D\000\200\263D\000\000-E\000\200\364D\000\200iD\000\000\331D\000@JD\000\300kE\000\320HE\000\340DE\000\200\204D\000\340\027E\000\000RD\000\240\257D\000\000/D\000 UE\000\200\322D\000\200\314D\000@\233D\000\300gD\000\300\301D\000\300\376D\000\240`E\000\000\372D\000\200\203D\000\300\363D\000\360\030E\000 \304D\000\200\355D\000`SE\000p\\E\000`\rE\000\240\227D\000\320\261E\000\200\242E\000 UE\000\350\270E\000\000gD\000\000\264D\000\300zD\000`\206E\000\200\275E\000\000\326D\000`\341D\000\340\301D\0004\002F\000\260\034E\000\020\nE\000\000pD\000 \242D\000\300FD\000\000\215D\000\200/E\000\200\264D\000\200\301D\000 \333D\000\200\324D\000\200uD\000\360wE\000`\333D\0000\002E\000\200\312D\000\200$D\000\200\331D\000\000\246D\000`\352D\000@CD\000@\304D\000\000\305D\000p5E\000@}D\000\300\247D\000p[E\000\200\241D\000@\013E\0000)E\000\000aD\000\240\332D\000\000\267D\000\340lE\000\360\023E\000\300\276D\000`\306E\000\240\244D\000P\034E\000`\336D\000\000 E\000\0004D\000\000\251D\000\340WE\000\000\'E\000\3007E\000`\360D\000\240\010E\000\240\233D\000\000\360C\000\240\007E\000\000\360D\000\020\217E\000\200\307D\000\300\311D\000\0005D\000`\364D\000\000\266D\000\240\322D\000`\214D\000\220\021E\000\200\257D\000\320\317E\000@\007E\000\0200E\000\200DD\000\000\377D\000x/F\000\240\215D\000\200\365D\000@lE\000x\272E\000\220\227E\000\000\206D\000\260\023E\000@\013E\000\300oE\000\200\360D\0000%E\000\200\004E\000@8D\000\334MF\000\260\004E\000\240FE\000\340AE\000`\265D\000\200VD\000@\275D\000\020\035E\000\200\344D\000\200\343D\000\300\243D\000\000\014E\000\240\003E\000\020\267E\000\000\257D\000\020nE\000`\200D\000@\316D\000\200ED\000 \014E\000\300\037E\000\000\224D\000\000\230D\000\240\273D\000`\365D\000\200\367D\000\360,E\000\000\347D\000\310\224E\000\000\264D\000\000\202D\000\240\314D\000@\246D\000\000\000E\000\000\306D\000\000\242D\000 \005E\000\000\223D\000 \315D\000@\221D\000\200\325D\000 \322D\000\200\324D\000`\233D\000H\255E\000\200\260D\000\320\001E\000\340\317D\000\220?E\000\000OE\000\000\220D\000\000\311D\000\320FE\000\340\365D\000\000\217D\000\260RE\000@\203D\000\300\305D\000 \227D\000\340\253E\000@\234E\000\020mE\000\300FE\000\300]E\0000\246E\000h\235E\000\030\360E\000\300\215D\000\300\224D\000\000\322D\000\000\273D\000\200\326D\000`\330D\000\340\242D\000\200\"E\000\300(D\000\000\277D\000\340\363D\000\000\372D\000\200\004E\000\300\244D\000\300AE\000\000\204D\000\000\350D\000\260<E\000\200\322D\000\000\242D\000\000\273D\000`\323D\000\000\234D\000\300\212D\000@`D\000\220\007E\000@\003E\0000;E\000\300\002E\000 \301D\000`\214D\000\200\235D\000\300\327D\000\370\270E\000\000\341D\000@UE\000`\320D\000@\241D\000@)D\000\300\357D\000\000\357D\000\000\014E\000\260\034E\000\000\274D\000\000zD\000\200nD\000\360\027F\000@}D\000\200\346D\000\200\374D\000\300yD\000\000\005E\000\200\273D\000\200QD\000\200\311D\000\200\310D\000\240\355D\000\000zD\000\240jE\000\200\000E\000\350\216E\000\000\245D\000\300\305D\000@\373D\000\000FD\000`\202D\000\000\226D\000\340\323E\000P\004E\000\000HD\000@\203D\000\270\316E\000 \306D\000\300OD\000 \020E\000\000\310D\000 )E\000\000/D\000\220\342E\000(#F\000\340\215D\000\3506F\000\200\314D\000\000\242D\000\220\003E\000\310\265E\000\340\315E\000\000\360C\000@\003E\000\200\350D\000\000HD\000\000pD\000\000\242D\000\020\232E\000\340\rE\000\200|D\000\340\276D\000\000\234D\000\000\310D\000@\237D\000@\003E\000\200\307D\000\300\240D\000\250\244E\000@\301D\000\200{D\000`\232D\000\240\263D\000\200\221D\000\000\310D\000\2009D\000\300ZD\000\200\324D\000\360\216E\000 \302D\000`\333D\000@\215D\000\320\033E\0008\372E\000\200,E\000\000\301D\000\260\006E\000\340!E\000\260`E\000\200\312D\000\000\222D\000`\254D\000\240\242D\000\000\265D\000\360%E\000\000zD\0008\205E\000\200\326D\000\220)E\000\000\361D\000\000\250D\000\340:E\000\320pE\000\240\320D\000 \030E\000\000>D\000\000\232D\000\200\354D\000 BE\000\240\006E\000p\301E\000\200\265D\000\000\371D\000@\317D\000\220?E\000\360IE\000\240jE\000\240\340D\000\200TE\000\300NE\000\340\326D\000 \037E\000\000zD\0000\tE\000\240\306D\000@\265D\000\340\345D\000\000\353D\000\000\372D\000\200\324D\000`\275D\000\000\177D\000@\312D\000\340\016E\000\340\310D\000P\030E\000\200\305D\000@\203D\000\240\225D\000@\315D\000\260DE\000\000\337D\000\000\253D\000\200\300D\000`@E\000\000JD\000\000\233D\000\300\267D\000\020\004E\000\000HE\000\340\250D\000\000\327E\000\260%E\000\340\371D\000\000pD\000\320\030E\000\000\341D\0000AE\000\220\246E\000\300ED\000`\352D\000\200\211D\000\340\027E\000@\003E\000`\362D\000\000(D\000\000\240D\000\260]E\000@\223D\000\000VD\000p&E\000\370\261E\000\200\354D\000 ZE\000\000\360D\000\200\"E\000\200\367D\000\000\325D\000\000\033D\000\340\323D\000`@E\000\320\204E\000 \267D\000\240WE\000\000\356D\000\300aD\000`\204D\000`\317D\000@\216D\000\000\210D\000\300\003E\000@5E\000 \250D\000`\321E\000 \206D\000\200YD\000H\330E\000`NE\000\240-E\000\360\036E\000\000\264D\000\240)E\000\300\200D\000\000HD\000\300\226D\000\000pD\000 9E\000@\232D\000x\265E\000\000\021E\000`\005E\000`BE\000\200\225D\000\340\264D\000@\034F\000\200\214D\000\000\226D\000\000yD\000\370\tF\000\220\374E\000@KE\000\000*D\000 \213D\000@\003E\000\200|D\000\000\343D\000\300\237D\000\000\330D\000\000\276D\000\000\201D\000`\227D\000\340\010E\000\240*E\000\340?E\000\260\013E\000\300\301D\000@?D\000@7E\000\200WE\000\240\340D\000PRE\000 \217E\000\200\245E\000@;D\000(\215E\000\370+F\000`\034E\000\200JD\0000;E\000\300fE\000\000kD\000\000\177D\000\200tD\000\0004D\000@VD\000@\355D\0000\001E\000\000\250D\000\200\211D\000\200\354D\000\300ZE\000\240\202E\0000\302E\000@7D\000`\313D\000 \324D\000\000\264D\000`\224D\000pNE\000\320#E\000@gE\000 \253D\000\020{E\000\340\225D\000`\230D\000\000zE\000\000fD\000\200\324D\000\340+F\000\340\022E\000@\270D\000@\334D\000\340\271E\000 \200E\000\320\nE\000 \334D\000\000\264D\000\000uD\000 \267D\000 \243D\000\210\214E\000\300\254D\000\300\016E\000@\003E\000\340qE\000\240wE\000\340)E\000\200\312D\000\220\036E\000\000&E\000\000sD\000\240\236D\000\000\221D\000\000\341D\000\360WE\000\300\272D\000\240\325D\000\260\234E\000\200;D\000\020\"E\000\340\302D\000\200\307D\000 \244D\000 \313D\000\220NE\0000\242E\000\300\223D\000\300\217D\000\200\204D\0000\001E\000\200\216D\000\200\344D\000\300\311D\000\000\257D\000\000HD\000\200\257D\000\000eD\000\340#E\000\000\207D\000\300\277D\000@\203D\000\340\364D\000\360!E\000@\224D\000\260\nE\000\360$E\000\200\246D\000\000\276D\000\000\260D\000@.E\000`\351D\000\200\355D\000\300\232D\000\340\022F\000@\324D\000\220@E\000\200\350D\000@\272D\000`\335D\000\000\026E\000\000\322D\000\340\253E\000\000\351D\000\240\304D\000 \277E\000\200\004D\000`\330D\000\000\221D\000\000\215D\000\240\212D\000\200\266D\000\200\232D\000\000zD\000`\337D\000\200\256D\000@\003E\000\000\230D\000\310\206E\000\200\005E\000\000zF\000`\206D\000\200\"D\000\200\305D\000\200\306D\000\200\006E\000\200\303D\000@NE\000@\324D\000\300\267D\000\000\264D\000\000\\E\000@\260D\000\000(D\000@gD\000`\013E\000\240\301D\000\200\242D\000\300\360D\000\000\346D\0000-E\000\260jE\000@wD\0008\203E\000\000\202D\000\000\260D\000\240~E\000\000\020E\000\200\273C\000\340\273D\000\240\237D\000\240\312D\000 \335D\000\200\030E\000\240bE\000\200mD\000\300\213D\000\000\225E\000`\325D\000\200\"E\000\000\263D\000X\315E\000\340\371D\000@\334D\000\000\232D\000\000QD\000\300\242D\000\300\352D\000\000\322D\000\220\234E\000\000\266D\000\000\026D\000pME\000\000\253D\000\000\026F\000\346\320F\000\000\240D\000\2001D\000pGE\000@\244D\000\200\236D\000\000gD\000\240\313D\000\200\355D\000`\251D\000\020\244E\000 kE\000\320\000E\000\200qD\000\200>E\000 @E\000\200\202D\000\240\310D\000\3401E\000\240\222D\000\210\204E\000\2002D\000\200\357D\000@ME\000\000\330D\000@\246D\000\000\264D\000\350\241E\000\270\220E\000\200&D\000 \254D\000\020\032E\000\300\335D\000@*D\000\000\332D\000\200\205D\000\000\323D\000\300-E\000@\277D\000 \317D\000\200\274D\000\000\352D\000\000\336D\000@\276D\000\000\233D\000@\241D\000\000!E\000\000\207D\000`NE\000\220qE\000\200uD\000\340\nE\000\000zD\000\000\341D\000\000\242D\000\0006D\000\350\203E\000 \212D\000\000\363D\000\300\332D\000 -E\000`\016E\000\300\344D\000\000\264D\000\200\216D\000\240\307D\000\000\177D\000\360\026E\000\300\327D\000@2D\000\000\377C\000\240\365D\000\300-E\000\000\347D\000 \273D\000@;E\000\220<E\000@gD\000\200\276D\000@\347D\000@\237D\000@\203D\000\000\\E\000\200\225D\000\240\345D\000\0005D\000\200\036E\000\000oD\000`\036E\000\2406E\000`\241D\000 \305D\000\340\013E\000\300\250D\000\240JE\000\000\250D\000\300=D\000P\372E\000\340\242D\000`\266D\000\300\250E\000\000\271D\000\200\354D\000\000\325D\000\000\310D\000\300\315D\000\000\257D\000\240\363D\000\340\255D\000 \356D\000\320\033E\000\000\346D\000\360#E\000 \365D\000p\016E\000\240\314D\000\220\037E\000 qE\000 _E\000\200fD\000\000<D\000`\225D\000@\377D\000@#E\000@\365D\000 #E\000 \242D\000\200\310D\000\200TD\000 \217E\000\240\251D\000\000pD\000\240\314E\000p\016E\000\200EE\000\330\347E\000\300\017E\000\200;E\000\340\275D\000\000oD\000\320IE\000 \340D\000\000kD\000\240\244D\000\200\216D\000P\026E\000\000\264D\000\000\016E\000\200-E\000\300\200D\000@\021E\000\200\253D\000\320VE\000\2006E\000\320+E\000\340\253E\000 \210E\000\300\312D\000\000\220D\000\200\331D\000\200\266D\000\000\214D\000\200\301D\000\000pD\000\0006D\000\240\244D\000\000\226D\000\000;D\000\200\225D\000\330\032F\000\000\322D\000\300\332D\000\360 F\000\000\245D\000\000\242D\000\000\202D\000\340\373D\000 \200E\000@xD\000\000\264D\000\000TD\000\300,D\000\340\230D\000\200\245D\000\200}D\000 \004E\000\200\\D\000 \370D\000x\246E\000@kD\000\200\216D\000\240\301D\000`8E\000 \244D\000\340\024E\000\300\375D\000\200\234D\000\300\344D\000\300\275D\000\030\354E\000`\207D\000@\356D\000\000\264D\000\000pD\000\200\237D\000\200:D\000@\335D\000\000(D\000\000\304D\000\000\207D\000\000\306D\000\000YD\000@\237D\000\000\325D\000 \325D\000\240%E\000@\033D\000\220\034E\000\014UF\000\300NE\000\000\240D\000\200\313D\000\360\002E\000\340\246D\000p\024E\000\300\242D\000\350\320E\000\300\230D\000\000RD\000 2E\000\240\036E\000pQE\000@\032E\000`UE\000\300UD\000@PD\000 \315D\000\000\220D\000\220\037E\000\000\234D\000\240\033E\000 \367D\000\0004D\000\200\261D\000 \213D\000\240\347D\000h\324E\000 \367D\000P\237E\000@\203D\000\300(E\000\000\250D\000@\222E\000\200\025E\000\000DD\000`8E\000P;E\000\300\017E\000`\200E\000\3007E\000\000\264D\000\000/E\000\300\200D\000p\026E\000@\237D\000\2007E\000\300\235D\000\000\200D\000\320?E\000@\362D\000`\226D\000x\307E\000pCE\000\3401E\000\240\033E\000\330\272F\000`\206E\000\300\212D\000\000\226D\000\200yD\000\300\036E\000\200\355D\000`\003E\000\200\312D\000\200\257D\000\200yD\000\000\313D\000\240\243D\000\000\300D\000 \317D\000@\217D\000\300\320D\000p\246E\000\300EE\000\300\363D\000 \321D\000\234\250F\000\200\216D\000\220/E\000\350\312E\000\000\250D\000\340\330D\000 \320D\000\220\222E\000\240\251D\000 \354D\000\340\355D\000\000\257D\000\200yD\000\300\005E\000\000*D\000\240}E\000\360\026E\000\300`D\000\200|E\000\250\202E\000\000\272D\000\300cD\000\000\346D\000\000\367D\000 \203D\000\200\267D\000\200TD\000\250\211E\000\230\236E\000\000HD\000\200\027E\000`\354D\000\260)E\000@\273D\000\240\357E\000 \243D\000\020<E\000\240\276D\000@\252D\000\000\324D\000\0002D\000\200TD\000\000\255D\000\230\251E\000`\333D\000\300\267D\000\300\017E\000 \232D\000\000\250D\000\340\034E\000\000#E\000\240\307D\000\320ME\000\240\221D\000\000\277D\000\220HE\000@\005D\000\200{D\000\200\332D\000 \232D\000\000\306D\000`\203D\000\300\323D\000\000\315D\000@\315D\000\200\340D\000\240\231D\000 dE\000@gE\000@\203D\000X\203E\000@\203D\000\340\221D\000\320[E\000\000\377D\000`\353D\000`\025E\000\240\252D\000\200\"D\000\300\317D\000\200\267D\000\000\250D\000\200TD\000\000!E\000\000\250D\000\300\301D\000 \325D\000\200\010E\000\200\'D\000\0003D\000\340\276D\000\300\032D\000\0005D\000 \007E\000`\020E\000@\242D\000\000\335D\000\300\205D\000\000BD\000\240\251E\000\000zD\000 \237D\000@hD\000\000\214D\000 ^E\000\240\226E\000@\302D\000\000\372D\000P\014E\000\300OE\000@\037E\000\200\224D\000\240\304D\000@\220D\000\000\177D\000\000RD\000H\276E\000\200fD\000\220\022E\000\240\235D\000p\232E\000\340$E\000\000\327D\000\240\203D\000\200\224D\000\260gE\000\200\tD\000\300ZF\000\200sD\000\000bE\000\340\001E\000\200\311D\000\000\226D\000\240\314D\000\000\372D\000@\217D\000\340\226D\000\300\360D\000\300\213D\000\260]E\000pnE\000\240\222D\000 \240D\000\240_E\000\300OE\000@FE\000\200\235D\000\300\210D\000@\227D\000\000\002E\000\220\013E\000\200\016E\000\200\233D\000P\027E\000\200\273D\000\000\333D\000\360\tE\000\0000D\000\300 E\000\240\276D\000\000\264D\000\200\365D\000\000\226D\000\200\257D\000\340 E\000\000\322D\000\200\312D\000@\304D\000\200\304D\000\200^D\000\300-E\000\240VE\000p&E\000\340\027E\000\000\233D\000`\214D\000\200\003E\000\000\271D\000@\234E\000\000\202D\000`\026E\000\000rE\000\000HD\000`\360D\000\000\272D\000\340\306D\000\300\256D\000`\354D\000\3009D\000\200fD\000`\217D\000\000\215D\000\000\341D\000\200{D\000\240\327D\000@\347D\000\200WD\000\000\300D\000\200\271D\000p`E\000\000MD\000\260\005E\000\320\032E\000\340\241D\000\000pE\000\000\253D\000`\263D\000p\014E\000\300+E\000\000kE\000\240\232D\000\000\264D\000@\242D\000\200\242D\000\000\365D\000@\270D\000@\203E\000\340/E\000@\347D\000\300\250D\000\350\255E\000\200VD\000\000XD\000@zD\0000-E\000\000/E\000@\035D\000\000\233D\000\000|D\000\200&D\000\000(D\000\3208E\000\240\311D\000`\037E\000\000\202D\000\200\211D\000\320RE\000`\213D\000\300nD\000\300\\E\000\000\375D\000`\211D\000\000\202D\000@\207D\000\330\272F\000@JD\000\360JE\000\020VE\000\000\330D\000\000\220D\000\200iD\000\360\007E\000@\265D\000\000\227D\000\200YE\000\200\005D\000\300IE\000\340\024E\000\200}D\000 \341D\000\300\351D\0000\010E\000\240\272D\000\000\257D\000\200+E\000\000mD\000\2007D\000\200\315D\000\000aD\000\200rD\000\340\201D\000\000aD\000\300MD\000\240\350D\000\320\204E\000`,E\000\240\240D\000\240kE\000 DE\000`\321D\000\000\264D\000@\322D\000\200\212D\000\300\327D\000`\256D\000@\265D\000\240\313D\000\200\331D\000\340\344D\000@\203D\000\230\225E\000\000MD\000 \234D\000\300\215D\000\200\234E\000@\265E\000\000\253D\000\000\310D\000\000\326D\000\000\204D\000\240\331D\000 \355D\000\300\263D\000\2603F\000\000\233D\000\200\267D\000 \250D\000\340\272D\000\2607E\000\000\202D\000\360\276E\000\000\202D\000\200NE\000 \346D\000`\345D\000\240\245D\000\000\264D\000\300KD\000\260sE\0008\201E\000\000*D\000\200UD\000\300\215D\000\300_D\000\000\355E\000\300\027E\000\240\337D\000\0201E\000\200ED\000\000\214D\0000\021E\000\000HD\000`\333D\000\270\267E\000\020#E\000\300\205D\000\000zE\000\000\242E\000 \262D\000\340\373D\000\340]E\000\220\027E\000\340\314D\000\000\375D\000\000\264D\000\340\220D\000\200\312D\000 \336D\000\260=E\000x\245E\000\240\026E\000\300<E\000\200\324D\000\300\300D\000@\323D\000\000\256D\000\300\264D\000\240\272E\000\220\005E\000\000\264D\000\000\320D\000\300\235D\000\340\371D\0000\036E\000\240\310D\000\200\265D\000`\256D\000\300\000E\000@\032E\000\200\245D\000@\272D\000 \342D\000`\330D\000\240\264D\000\200\331D\000\000\261D\000`\352D\000\200\211D\000 \333D\000\2002D\000\340\222E\000\020\027E\000 2E\000\240\367D\000\340\026E\000\300\262D\000\200\274D\000\020\005E\000\300\320E\000`,E\000\300(E\000\000gD\000\200wD\000`\213D\000\300RD\000\300\255D\000 aE\000\030\222E\000\000\032E\0008\244E\000\360nE\000\000\202E\000 \241D\000 \031E\000@\265D\000@\220D\000\000RD\000\320\230E\000\240*E\000\220XE\000\200\202D\000\000KD\000\300\255D\000`\202E\000\300\255E\000@bD\000\000\264D\000\000\203D\000\240\271D\000p\031E\000\000\264D\000\000\210D\000\240\371D\000\340\225D\000@\222D\000(\334E\000@\003E\000\000\242D\000\000RD\000 \007E\000\320XE\000@\003E\000\340\207D\000\240\305D\000\000RD\000\000\\D\000\000\214D\000\360mE\000\000$D\000@\264D\000\240\256D\000\000\235D\000@\377D\000@\265D\000\200)D\000\000\365D\000\260\022E\000\340\200D\000\300\303D\000@\223D\000 %E\000\200\004E\000\200bD\0000\201E\000\000\235D\000\000\204D\000\000WE\000\000\242D\000\000\006E\000\000\033D\000\300ID\000\260\037E\000\230\250E\000\340\331D\000 \242D\000 \255D\000\220\035E\000\0007D\000\220\014E\000\300\362D\000\300nD\000\340\352D\000`\352D\000\200\225D\000\000zE\000\320+E\000P\036E\000@\324D\000`\214D\000\200hD\000\240\001E\000\000wD\000`\251D\000\200\245D\000\300\017E\000@\361D\000\000(D\000\360RE\000\000\207D\000@\200E\000\360\017E\000\340\263D\000\000\257E\000\200\004E\000\300\235D\000\240\270D\000\2601E\000\000nD\000\000CD\000\300]D\000@\265D\000\300\264D\000\300\031E\000\240\202E\000`\376D\000@\003E\000\020 E\000\0006D\000@\265D\000 \306D\000\200\021D\000`\027E\000\300ED\000 \374D\000 \342D\000\000RD\000\000\231D\000\000/E\000\300\221D\000\200mE\000\200\266D\000@\356D\000\300\265D\000P\242E\000\200hD\000@\007D\000\200\326D\000`\342D\000\000\233E\000\200\246D\000@\300D\000\000\\D\000 kE\000\240\272D\000\000\245D\000\000\341D\000`^E\000\0009E\000\300ZD\000ptE\000\000.D\000\000WD\000\240\216D\000\200\335D\000@\347D\000P\232E\000@\203D\000\000\226D\000\340\010E\0000\236E\000 \270D\000`\206D\000\260LE\000\200\237D\000@\014E\000\200TD\000`\362D\000\000\250D\000\340/E\000\340\235E\000\340\327D\000\200\'D\000@\275D\000\360nE\000\200\350D\000\220^E\000\200&E\000\320\007E\000@\257D\000\360SE\000\000\270D\000p\026E\000\200DD\000\370\261E\000\240\234D\000\000\214D\000\300\370D\000`\325D\000\200\343D\000P\014E\000\240\033E\000\360\021E\000@]D\000\200\335D\000\200\030E\000@\203E\000\220\001E\000`\213D\000@\010E\000`\206D\000\000<D\000\000\016E\000\340\005E\000\200\311D\000\2007D\000\300\261D\000\000HE\000\260SE\000\300,D\000 \215D\000\000\202D\000\300\375D\000\240\305D\000`$E\000\300\234D\000\240 E\000 \262D\000`\334D\000\240tE\000 \312D\000\000\250D\000\300\200D\000@\265D\000\200\306D\000\340\230D\000\260\032E\000\200^E\000\200\351D\000 \245D\000\200MD"
      }
    }
  }
}
node {
  name: "SparseTensor/indices"
  op: "Const"
  attr {
    key: "_output_shapes"
    value {
      list {
        shape {
          dim {
            size: 1660
          }
          dim {
            size: 2
          }
        }
      }
    }
  }
  attr {
    key: "dtype"
    value {
      type: DT_INT64
    }
  }
  attr {
    key: "value"
    value {
      tensor {
        dtype: DT_INT64
        tensor_shape {
          dim {
            size: 1660
          }
          dim {
            size: 2
          }
        }
        tensor_content: "\000\000\000\000\000\000\000\000\000\000\000\000\000\000\000\000\001\000\000\000\000\000\000\000\000\000\000\000\000\000\000\000\002\000\000\000\000\000\000\000\000\000\000\000\000\000\000\000\003\000\000\000\000\000\000\000\000\000\000\000\000\000\000\000\004\000\000\000\000\000\000\000\000\000\000\000\000\000\000\000\005\000\000\000\000\000\000\000\000\000\000\000\000\000\000\000\006\000\000\000\000\000\000\000\000\000\000\000\000\000\000\000\007\000\000\000\000\000\000\000\000\000\000\000\000\000\000\000\010\000\000\000\000\000\000\000\000\000\000\000\000\000\000\000\t\000\000\000\000\000\000\000\000\000\000\000\000\000\000\000\n\000\000\000\000\000\000\000\000\000\000\000\000\000\000\000\013\000\000\000\000\000\000\000\000\000\000\000\000\000\000\000\014\000\000\000\000\000\000\000\000\000\000\000\000\000\000\000\r\000\000\000\000\000\000\000\000\000\000\000\000\000\000\000\016\000\000\000\000\000\000\000\000\000\000\000\000\000\000\000\017\000\000\000\000\000\000\000\000\000\000\000\000\000\000\000\020\000\000\000\000\000\000\000\000\000\000\000\000\000\000\000\021\000\000\000\000\000\000\000\000\000\000\000\000\000\000\000\022\000\000\000\000\000\000\000\000\000\000\000\000\000\000\000\023\000\000\000\000\000\000\000\000\000\000\000\000\000\000\000\024\000\000\000\000\000\000\000\000\000\000\000\000\000\000\000\025\000\000\000\000\000\000\000\000\000\000\000\000\000\000\000\026\000\000\000\000\000\000\000\000\000\000\000\000\000\000\000\027\000\000\000\000\000\000\000\000\000\000\000\000\000\000\000\030\000\000\000\000\000\000\000\000\000\000\000\000\000\000\000\031\000\000\000\000\000\000\000\000\000\000\000\000\000\000\000\032\000\000\000\000\000\000\000\000\000\000\000\000\000\000\000\033\000\000\000\000\000\000\000\000\000\000\000\000\000\000\000\034\000\000\000\000\000\000\000\000\000\000\000\000\000\000\000\035\000\000\000\000\000\000\000\000\000\000\000\000\000\000\000\036\000\000\000\000\000\000\000\000\000\000\000\000\000\000\000\037\000\000\000\000\000\000\000\000\000\000\000\000\000\000\000 \000\000\000\000\000\000\000\000\000\000\000\000\000\000\000!\000\000\000\000\000\000\000\000\000\000\000\000\000\000\000\"\000\000\000\000\000\000\000\000\000\000\000\000\000\000\000#\000\000\000\000\000\000\000\000\000\000\000\000\000\000\000$\000\000\000\000\000\000\000\000\000\000\000\000\000\000\000%\000\000\000\000\000\000\000\000\000\000\000\000\000\000\000&\000\000\000\000\000\000\000\000\000\000\000\000\000\000\000\'\000\000\000\000\000\000\000\000\000\000\000\000\000\000\000(\000\000\000\000\000\000\000\000\000\000\000\000\000\000\000)\000\000\000\000\000\000\000\000\000\000\000\000\000\000\000*\000\000\000\000\000\000\000\000\000\000\000\000\000\000\000+\000\000\000\000\000\000\000\000\000\000\000\000\000\000\000,\000\000\000\000\000\000\000\000\000\000\000\000\000\000\000-\000\000\000\000\000\000\000\000\000\000\000\000\000\000\000.\000\000\000\000\000\000\000\000\000\000\000\000\000\000\000/\000\000\000\000\000\000\000\000\000\000\000\000\000\000\0000\000\000\000\000\000\000\000\000\000\000\000\000\000\000\0001\000\000\000\000\000\000\000\000\000\000\000\000\000\000\0002\000\000\000\000\000\000\000\000\000\000\000\000\000\000\0003\000\000\000\000\000\000\000\000\000\000\000\000\000\000\0004\000\000\000\000\000\000\000\000\000\000\000\000\000\000\0005\000\000\000\000\000\000\000\000\000\000\000\000\000\000\0006\000\000\000\000\000\000\000\000\000\000\000\000\000\000\0007\000\000\000\000\000\000\000\000\000\000\000\000\000\000\0008\000\000\000\000\000\000\000\000\000\000\000\000\000\000\0009\000\000\000\000\000\000\000\000\000\000\000\000\000\000\000:\000\000\000\000\000\000\000\000\000\000\000\000\000\000\000;\000\000\000\000\000\000\000\000\000\000\000\000\000\000\000<\000\000\000\000\000\000\000\000\000\000\000\000\000\000\000=\000\000\000\000\000\000\000\000\000\000\000\000\000\000\000>\000\000\000\000\000\000\000\000\000\000\000\000\000\000\000?\000\000\000\000\000\000\000\000\000\000\000\000\000\000\000@\000\000\000\000\000\000\000\000\000\000\000\000\000\000\000A\000\000\000\000\000\000\000\000\000\000\000\000\000\000\000B\000\000\000\000\000\000\000\000\000\000\000\000\000\000\000C\000\000\000\000\000\000\000\000\000\000\000\000\000\000\000D\000\000\000\000\000\000\000\000\000\000\000\000\000\000\000E\000\000\000\000\000\000\000\000\000\000\000\000\000\000\000F\000\000\000\000\000\000\000\000\000\000\000\000\000\000\000G\000\000\000\000\000\000\000\000\000\000\000\000\000\000\000H\000\000\000\000\000\000\000\000\000\000\000\000\000\000\000I\000\000\000\000\000\000\000\000\000\000\000\000\000\000\000J\000\000\000\000\000\000\000\000\000\000\000\000\000\000\000K\000\000\000\000\000\000\000\000\000\000\000\000\000\000\000L\000\000\000\000\000\000\000\000\000\000\000\000\000\000\000M\000\000\000\000\000\000\000\000\000\000\000\000\000\000\000N\000\000\000\000\000\000\000\000\000\000\000\000\000\000\000O\000\000\000\000\000\000\000\000\000\000\000\000\000\000\000P\000\000\000\000\000\000\000\000\000\000\000\000\000\000\000Q\000\000\000\000\000\000\000\000\000\000\000\000\000\000\000R\000\000\000\000\000\000\000\000\000\000\000\000\000\000\000S\000\000\000\000\000\000\000\000\000\000\000\000\000\000\000T\000\000\000\000\000\000\000\000\000\000\000\000\000\000\000U\000\000\000\000\000\000\000\000\000\000\000\000\000\000\000V\000\000\000\000\000\000\000\000\000\000\000\000\000\000\000W\000\000\000\000\000\000\000\000\000\000\000\000\000\000\000X\000\000\000\000\000\000\000\000\000\000\000\000\000\000\000Y\000\000\000\000\000\000\000\000\000\000\000\000\000\000\000Z\000\000\000\000\000\000\000\000\000\000\000\000\000\000\000[\000\000\000\000\000\000\000\000\000\000\000\000\000\000\000\\\000\000\000\000\000\000\000\000\000\000\000\000\000\000\000]\000\000\000\000\000\000\000\000\000\000\000\000\000\000\000^\000\000\000\000\000\000\000\000\000\000\000\000\000\000\000_\000\000\000\000\000\000\000\000\000\000\000\000\000\000\000`\000\000\000\000\000\000\000\000\000\000\000\000\000\000\000a\000\000\000\000\000\000\000\000\000\000\000\000\000\000\000b\000\000\000\000\000\000\000\000\000\000\000\000\000\000\000c\000\000\000\000\000\000\000\000\000\000\000\000\000\000\000d\000\000\000\000\000\000\000\000\000\000\000\000\000\000\000e\000\000\000\000\000\000\000\000\000\000\000\000\000\000\000f\000\000\000\000\000\000\000\000\000\000\000\000\000\000\000g\000\000\000\000\000\000\000\000\000\000\000\000\000\000\000h\000\000\000\000\000\000\000\000\000\000\000\000\000\000\000i\000\000\000\000\000\000\000\000\000\000\000\000\000\000\000j\000\000\000\000\000\000\000\000\000\000\000\000\000\000\000k\000\000\000\000\000\000\000\000\000\000\000\000\000\000\000l\000\000\000\000\000\000\000\000\000\000\000\000\000\000\000m\000\000\000\000\000\000\000\000\000\000\000\000\000\000\000n\000\000\000\000\000\000\000\000\000\000\000\000\000\000\000o\000\000\000\000\000\000\000\000\000\000\000\000\000\000\000p\000\000\000\000\000\000\000\000\000\000\000\000\000\000\000q\000\000\000\000\000\000\000\000\000\000\000\000\000\000\000r\000\000\000\000\000\000\000\000\000\000\000\000\000\000\000s\000\000\000\000\000\000\000\000\000\000\000\000\000\000\000t\000\000\000\000\000\000\000\000\000\000\000\000\000\000\000u\000\000\000\000\000\000\000\000\000\000\000\000\000\000\000v\000\000\000\000\000\000\000\000\000\000\000\000\000\000\000w\000\000\000\000\000\000\000\000\000\000\000\000\000\000\000x\000\000\000\000\000\000\000\000\000\000\000\000\000\000\000y\000\000\000\000\000\000\000\000\000\000\000\000\000\000\000z\000\000\000\000\000\000\000\000\000\000\000\000\000\000\000{\000\000\000\000\000\000\000\000\000\000\000\000\000\000\000|\000\000\000\000\000\000\000\000\000\000\000\000\000\000\000}\000\000\000\000\000\000\000\000\000\000\000\000\000\000\000~\000\000\000\000\000\000\000\000\000\000\000\000\000\000\000\177\000\000\000\000\000\000\000\000\000\000\000\000\000\000\000\200\000\000\000\000\000\000\000\000\000\000\000\000\000\000\000\201\000\000\000\000\000\000\000\000\000\000\000\000\000\000\000\202\000\000\000\000\000\000\000\000\000\000\000\000\000\000\000\203\000\000\000\000\000\000\000\000\000\000\000\000\000\000\000\204\000\000\000\000\000\000\000\000\000\000\000\000\000\000\000\205\000\000\000\000\000\000\000\000\000\000\000\000\000\000\000\206\000\000\000\000\000\000\000\000\000\000\000\000\000\000\000\207\000\000\000\000\000\000\000\000\000\000\000\000\000\000\000\210\000\000\000\000\000\000\000\000\000\000\000\000\000\000\000\211\000\000\000\000\000\000\000\000\000\000\000\000\000\000\000\212\000\000\000\000\000\000\000\000\000\000\000\000\000\000\000\213\000\000\000\000\000\000\000\000\000\000\000\000\000\000\000\214\000\000\000\000\000\000\000\000\000\000\000\000\000\000\000\215\000\000\000\000\000\000\000\000\000\000\000\000\000\000\000\216\000\000\000\000\000\000\000\000\000\000\000\000\000\000\000\217\000\000\000\000\000\000\000\000\000\000\000\000\000\000\000\220\000\000\000\000\000\000\000\000\000\000\000\000\000\000\000\221\000\000\000\000\000\000\000\000\000\000\000\000\000\000\000\222\000\000\000\000\000\000\000\000\000\000\000\000\000\000\000\223\000\000\000\000\000\000\000\000\000\000\000\000\000\000\000\224\000\000\000\000\000\000\000\000\000\000\000\000\000\000\000\225\000\000\000\000\000\000\000\000\000\000\000\000\000\000\000\226\000\000\000\000\000\000\000\000\000\000\000\000\000\000\000\227\000\000\000\000\000\000\000\000\000\000\000\000\000\000\000\230\000\000\000\000\000\000\000\000\000\000\000\000\000\000\000\231\000\000\000\000\000\000\000\000\000\000\000\000\000\000\000\232\000\000\000\000\000\000\000\000\000\000\000\000\000\000\000\233\000\000\000\000\000\000\000\000\000\000\000\000\000\000\000\234\000\000\000\000\000\000\000\000\000\000\000\000\000\000\000\235\000\000\000\000\000\000\000\000\000\000\000\000\000\000\000\236\000\000\000\000\000\000\000\000\000\000\000\000\000\000\000\237\000\000\000\000\000\000\000\000\000\000\000\000\000\000\000\240\000\000\000\000\000\000\000\000\000\000\000\000\000\000\000\241\000\000\000\000\000\000\000\000\000\000\000\000\000\000\000\242\000\000\000\000\000\000\000\000\000\000\000\000\000\000\000\243\000\000\000\000\000\000\000\000\000\000\000\000\000\000\000\244\000\000\000\000\000\000\000\000\000\000\000\000\000\000\000\245\000\000\000\000\000\000\000\000\000\000\000\000\000\000\000\246\000\000\000\000\000\000\000\000\000\000\000\000\000\000\000\247\000\000\000\000\000\000\000\000\000\000\000\000\000\000\000\250\000\000\000\000\000\000\000\000\000\000\000\000\000\000\000\251\000\000\000\000\000\000\000\000\000\000\000\000\000\000\000\252\000\000\000\000\000\000\000\000\000\000\000\000\000\000\000\253\000\000\000\000\000\000\000\000\000\000\000\000\000\000\000\254\000\000\000\000\000\000\000\000\000\000\000\000\000\000\000\255\000\000\000\000\000\000\000\000\000\000\000\000\000\000\000\256\000\000\000\000\000\000\000\000\000\000\000\000\000\000\000\257\000\000\000\000\000\000\000\000\000\000\000\000\000\000\000\260\000\000\000\000\000\000\000\000\000\000\000\000\000\000\000\261\000\000\000\000\000\000\000\000\000\000\000\000\000\000\000\262\000\000\000\000\000\000\000\000\000\000\000\000\000\000\000\263\000\000\000\000\000\000\000\000\000\000\000\000\000\000\000\264\000\000\000\000\000\000\000\000\000\000\000\000\000\000\000\265\000\000\000\000\000\000\000\000\000\000\000\000\000\000\000\266\000\000\000\000\000\000\000\000\000\000\000\000\000\000\000\267\000\000\000\000\000\000\000\000\000\000\000\000\000\000\000\270\000\000\000\000\000\000\000\000\000\000\000\000\000\000\000\271\000\000\000\000\000\000\000\000\000\000\000\000\000\000\000\272\000\000\000\000\000\000\000\000\000\000\000\000\000\000\000\273\000\000\000\000\000\000\000\000\000\000\000\000\000\000\000\274\000\000\000\000\000\000\000\000\000\000\000\000\000\000\000\275\000\000\000\000\000\000\000\000\000\000\000\000\000\000\000\276\000\000\000\000\000\000\000\000\000\000\000\000\000\000\000\277\000\000\000\000\000\000\000\000\000\000\000\000\000\000\000\300\000\000\000\000\000\000\000\000\000\000\000\000\000\000\000\301\000\000\000\000\000\000\000\000\000\000\000\000\000\000\000\302\000\000\000\000\000\000\000\000\000\000\000\000\000\000\000\303\000\000\000\000\000\000\000\000\000\000\000\000\000\000\000\304\000\000\000\000\000\000\000\000\000\000\000\000\000\000\000\305\000\000\000\000\000\000\000\000\000\000\000\000\000\000\000\306\000\000\000\000\000\000\000\000\000\000\000\000\000\000\000\307\000\000\000\000\000\000\000\000\000\000\000\000\000\000\000\310\000\000\000\000\000\000\000\000\000\000\000\000\000\000\000\311\000\000\000\000\000\000\000\000\000\000\000\000\000\000\000\312\000\000\000\000\000\000\000\000\000\000\000\000\000\000\000\313\000\000\000\000\000\000\000\000\000\000\000\000\000\000\000\314\000\000\000\000\000\000\000\000\000\000\000\000\000\000\000\315\000\000\000\000\000\000\000\000\000\000\000\000\000\000\000\316\000\000\000\000\000\000\000\000\000\000\000\000\000\000\000\317\000\000\000\000\000\000\000\000\000\000\000\000\000\000\000\320\000\000\000\000\000\000\000\000\000\000\000\000\000\000\000\321\000\000\000\000\000\000\000\000\000\000\000\000\000\000\000\322\000\000\000\000\000\000\000\000\000\000\000\000\000\000\000\323\000\000\000\000\000\000\000\000\000\000\000\000\000\000\000\324\000\000\000\000\000\000\000\000\000\000\000\000\000\000\000\325\000\000\000\000\000\000\000\000\000\000\000\000\000\000\000\326\000\000\000\000\000\000\000\000\000\000\000\000\000\000\000\327\000\000\000\000\000\000\000\000\000\000\000\000\000\000\000\330\000\000\000\000\000\000\000\000\000\000\000\000\000\000\000\331\000\000\000\000\000\000\000\000\000\000\000\000\000\000\000\332\000\000\000\000\000\000\000\000\000\000\000\000\000\000\000\333\000\000\000\000\000\000\000\000\000\000\000\000\000\000\000\334\000\000\000\000\000\000\000\000\000\000\000\000\000\000\000\335\000\000\000\000\000\000\000\000\000\000\000\000\000\000\000\336\000\000\000\000\000\000\000\000\000\000\000\000\000\000\000\337\000\000\000\000\000\000\000\000\000\000\000\000\000\000\000\340\000\000\000\000\000\000\000\000\000\000\000\000\000\000\000\341\000\000\000\000\000\000\000\000\000\000\000\000\000\000\000\342\000\000\000\000\000\000\000\000\000\000\000\000\000\000\000\343\000\000\000\000\000\000\000\000\000\000\000\000\000\000\000\344\000\000\000\000\000\000\000\000\000\000\000\000\000\000\000\345\000\000\000\000\000\000\000\000\000\000\000\000\000\000\000\346\000\000\000\000\000\000\000\000\000\000\000\000\000\000\000\347\000\000\000\000\000\000\000\000\000\000\000\000\000\000\000\350\000\000\000\000\000\000\000\000\000\000\000\000\000\000\000\351\000\000\000\000\000\000\000\000\000\000\000\000\000\000\000\352\000\000\000\000\000\000\000\000\000\000\000\000\000\000\000\353\000\000\000\000\000\000\000\000\000\000\000\000\000\000\000\354\000\000\000\000\000\000\000\000\000\000\000\000\000\000\000\355\000\000\000\000\000\000\000\000\000\000\000\000\000\000\000\356\000\000\000\000\000\000\000\000\000\000\000\000\000\000\000\357\000\000\000\000\000\000\000\000\000\000\000\000\000\000\000\360\000\000\000\000\000\000\000\000\000\000\000\000\000\000\000\361\000\000\000\000\000\000\000\000\000\000\000\000\000\000\000\362\000\000\000\000\000\000\000\000\000\000\000\000\000\000\000\363\000\000\000\000\000\000\000\000\000\000\000\000\000\000\000\364\000\000\000\000\000\000\000\000\000\000\000\000\000\000\000\365\000\000\000\000\000\000\000\000\000\000\000\000\000\000\000\366\000\000\000\000\000\000\000\000\000\000\000\000\000\000\000\367\000\000\000\000\000\000\000\000\000\000\000\000\000\000\000\370\000\000\000\000\000\000\000\000\000\000\000\000\000\000\000\371\000\000\000\000\000\000\000\000\000\000\000\000\000\000\000\372\000\000\000\000\000\000\000\000\000\000\000\000\000\000\000\373\000\000\000\000\000\000\000\000\000\000\000\000\000\000\000\374\000\000\000\000\000\000\000\000\000\000\000\000\000\000\000\375\000\000\000\000\000\000\000\000\000\000\000\000\000\000\000\376\000\000\000\000\000\000\000\000\000\000\000\000\000\000\000\377\000\000\000\000\000\000\000\000\000\000\000\000\000\000\000\000\001\000\000\000\000\000\000\000\000\000\000\000\000\000\000\001\001\000\000\000\000\000\000\000\000\000\000\000\000\000\000\002\001\000\000\000\000\000\000\000\000\000\000\000\000\000\000\003\001\000\000\000\000\000\000\000\000\000\000\000\000\000\000\004\001\000\000\000\000\000\000\000\000\000\000\000\000\000\000\005\001\000\000\000\000\000\000\000\000\000\000\000\000\000\000\006\001\000\000\000\000\000\000\000\000\000\000\000\000\000\000\007\001\000\000\000\000\000\000\000\000\000\000\000\000\000\000\010\001\000\000\000\000\000\000\000\000\000\000\000\000\000\000\t\001\000\000\000\000\000\000\000\000\000\000\000\000\000\000\n\001\000\000\000\000\000\000\000\000\000\000\000\000\000\000\013\001\000\000\000\000\000\000\000\000\000\000\000\000\000\000\014\001\000\000\000\000\000\000\000\000\000\000\000\000\000\000\r\001\000\000\000\000\000\000\000\000\000\000\000\000\000\000\016\001\000\000\000\000\000\000\000\000\000\000\000\000\000\000\017\001\000\000\000\000\000\000\000\000\000\000\000\000\000\000\020\001\000\000\000\000\000\000\000\000\000\000\000\000\000\000\021\001\000\000\000\000\000\000\000\000\000\000\000\000\000\000\022\001\000\000\000\000\000\000\000\000\000\000\000\000\000\000\023\001\000\000\000\000\000\000\000\000\000\000\000\000\000\000\024\001\000\000\000\000\000\000\000\000\000\000\000\000\000\000\025\001\000\000\000\000\000\000\000\000\000\000\000\000\000\000\026\001\000\000\000\000\000\000\000\000\000\000\000\000\000\000\027\001\000\000\000\000\000\000\000\000\000\000\000\000\000\000\030\001\000\000\000\000\000\000\000\000\000\000\000\000\000\000\031\001\000\000\000\000\000\000\000\000\000\000\000\000\000\000\032\001\000\000\000\000\000\000\000\000\000\000\000\000\000\000\033\001\000\000\000\000\000\000\000\000\000\000\000\000\000\000\034\001\000\000\000\000\000\000\000\000\000\000\000\000\000\000\035\001\000\000\000\000\000\000\000\000\000\000\000\000\000\000\036\001\000\000\000\000\000\000\000\000\000\000\000\000\000\000\037\001\000\000\000\000\000\000\000\000\000\000\000\000\000\000 \001\000\000\000\000\000\000\000\000\000\000\000\000\000\000!\001\000\000\000\000\000\000\000\000\000\000\000\000\000\000\"\001\000\000\000\000\000\000\000\000\000\000\000\000\000\000#\001\000\000\000\000\000\000\000\000\000\000\000\000\000\000$\001\000\000\000\000\000\000\000\000\000\000\000\000\000\000%\001\000\000\000\000\000\000\000\000\000\000\000\000\000\000&\001\000\000\000\000\000\000\000\000\000\000\000\000\000\000\'\001\000\000\000\000\000\000\000\000\000\000\000\000\000\000(\001\000\000\000\000\000\000\000\000\000\000\000\000\000\000)\001\000\000\000\000\000\000\000\000\000\000\000\000\000\000*\001\000\000\000\000\000\000\000\000\000\000\000\000\000\000+\001\000\000\000\000\000\000\000\000\000\000\000\000\000\000,\001\000\000\000\000\000\000\000\000\000\000\000\000\000\000-\001\000\000\000\000\000\000\000\000\000\000\000\000\000\000.\001\000\000\000\000\000\000\000\000\000\000\000\000\000\000/\001\000\000\000\000\000\000\000\000\000\000\000\000\000\0000\001\000\000\000\000\000\000\000\000\000\000\000\000\000\0001\001\000\000\000\000\000\000\000\000\000\000\000\000\000\0002\001\000\000\000\000\000\000\000\000\000\000\000\000\000\0003\001\000\000\000\000\000\000\000\000\000\000\000\000\000\0004\001\000\000\000\000\000\000\000\000\000\000\000\000\000\0005\001\000\000\000\000\000\000\000\000\000\000\000\000\000\0006\001\000\000\000\000\000\000\000\000\000\000\000\000\000\0007\001\000\000\000\000\000\000\000\000\000\000\000\000\000\0008\001\000\000\000\000\000\000\000\000\000\000\000\000\000\0009\001\000\000\000\000\000\000\000\000\000\000\000\000\000\000:\001\000\000\000\000\000\000\000\000\000\000\000\000\000\000;\001\000\000\000\000\000\000\000\000\000\000\000\000\000\000<\001\000\000\000\000\000\000\000\000\000\000\000\000\000\000=\001\000\000\000\000\000\000\000\000\000\000\000\000\000\000>\001\000\000\000\000\000\000\000\000\000\000\000\000\000\000?\001\000\000\000\000\000\000\000\000\000\000\000\000\000\000@\001\000\000\000\000\000\000\000\000\000\000\000\000\000\000A\001\000\000\000\000\000\000\000\000\000\000\000\000\000\000B\001\000\000\000\000\000\000\000\000\000\000\000\000\000\000C\001\000\000\000\000\000\000\000\000\000\000\000\000\000\000D\001\000\000\000\000\000\000\000\000\000\000\000\000\000\000E\001\000\000\000\000\000\000\000\000\000\000\000\000\000\000F\001\000\000\000\000\000\000\000\000\000\000\000\000\000\000G\001\000\000\000\000\000\000\000\000\000\000\000\000\000\000H\001\000\000\000\000\000\000\000\000\000\000\000\000\000\000I\001\000\000\000\000\000\000\000\000\000\000\000\000\000\000J\001\000\000\000\000\000\000\000\000\000\000\000\000\000\000K\001\000\000\000\000\000\000\000\000\000\000\000\000\000\000L\001\000\000\000\000\000\000\000\000\000\000\000\000\000\000M\001\000\000\000\000\000\000\000\000\000\000\000\000\000\000N\001\000\000\000\000\000\000\000\000\000\000\000\000\000\000O\001\000\000\000\000\000\000\000\000\000\000\000\000\000\000P\001\000\000\000\000\000\000\000\000\000\000\000\000\000\000Q\001\000\000\000\000\000\000\000\000\000\000\000\000\000\000R\001\000\000\000\000\000\000\000\000\000\000\000\000\000\000S\001\000\000\000\000\000\000\000\000\000\000\000\000\000\000T\001\000\000\000\000\000\000\000\000\000\000\000\000\000\000U\001\000\000\000\000\000\000\000\000\000\000\000\000\000\000V\001\000\000\000\000\000\000\000\000\000\000\000\000\000\000W\001\000\000\000\000\000\000\000\000\000\000\000\000\000\000X\001\000\000\000\000\000\000\000\000\000\000\000\000\000\000Y\001\000\000\000\000\000\000\000\000\000\000\000\000\000\000Z\001\000\000\000\000\000\000\000\000\000\000\000\000\000\000[\001\000\000\000\000\000\000\000\000\000\000\000\000\000\000\\\001\000\000\000\000\000\000\000\000\000\000\000\000\000\000]\001\000\000\000\000\000\000\000\000\000\000\000\000\000\000^\001\000\000\000\000\000\000\000\000\000\000\000\000\000\000_\001\000\000\000\000\000\000\000\000\000\000\000\000\000\000`\001\000\000\000\000\000\000\000\000\000\000\000\000\000\000a\001\000\000\000\000\000\000\000\000\000\000\000\000\000\000b\001\000\000\000\000\000\000\000\000\000\000\000\000\000\000c\001\000\000\000\000\000\000\000\000\000\000\000\000\000\000d\001\000\000\000\000\000\000\000\000\000\000\000\000\000\000e\001\000\000\000\000\000\000\000\000\000\000\000\000\000\000f\001\000\000\000\000\000\000\000\000\000\000\000\000\000\000g\001\000\000\000\000\000\000\000\000\000\000\000\000\000\000h\001\000\000\000\000\000\000\000\000\000\000\000\000\000\000i\001\000\000\000\000\000\000\000\000\000\000\000\000\000\000j\001\000\000\000\000\000\000\000\000\000\000\000\000\000\000k\001\000\000\000\000\000\000\000\000\000\000\000\000\000\000l\001\000\000\000\000\000\000\000\000\000\000\000\000\000\000m\001\000\000\000\000\000\000\000\000\000\000\000\000\000\000n\001\000\000\000\000\000\000\000\000\000\000\000\000\000\000o\001\000\000\000\000\000\000\000\000\000\000\000\000\000\000p\001\000\000\000\000\000\000\000\000\000\000\000\000\000\000q\001\000\000\000\000\000\000\000\000\000\000\000\000\000\000r\001\000\000\000\000\000\000\000\000\000\000\000\000\000\000s\001\000\000\000\000\000\000\000\000\000\000\000\000\000\000t\001\000\000\000\000\000\000\000\000\000\000\000\000\000\000u\001\000\000\000\000\000\000\000\000\000\000\000\000\000\000v\001\000\000\000\000\000\000\000\000\000\000\000\000\000\000w\001\000\000\000\000\000\000\000\000\000\000\000\000\000\000x\001\000\000\000\000\000\000\000\000\000\000\000\000\000\000y\001\000\000\000\000\000\000\000\000\000\000\000\000\000\000z\001\000\000\000\000\000\000\000\000\000\000\000\000\000\000{\001\000\000\000\000\000\000\000\000\000\000\000\000\000\000|\001\000\000\000\000\000\000\000\000\000\000\000\000\000\000}\001\000\000\000\000\000\000\000\000\000\000\000\000\000\000~\001\000\000\000\000\000\000\000\000\000\000\000\000\000\000\177\001\000\000\000\000\000\000\000\000\000\000\000\000\000\000\200\001\000\000\000\000\000\000\000\000\000\000\000\000\000\000\201\001\000\000\000\000\000\000\000\000\000\000\000\000\000\000\202\001\000\000\000\000\000\000\000\000\000\000\000\000\000\000\203\001\000\000\000\000\000\000\000\000\000\000\000\000\000\000\204\001\000\000\000\000\000\000\000\000\000\000\000\000\000\000\205\001\000\000\000\000\000\000\000\000\000\000\000\000\000\000\206\001\000\000\000\000\000\000\000\000\000\000\000\000\000\000\207\001\000\000\000\000\000\000\000\000\000\000\000\000\000\000\210\001\000\000\000\000\000\000\000\000\000\000\000\000\000\000\211\001\000\000\000\000\000\000\000\000\000\000\000\000\000\000\212\001\000\000\000\000\000\000\000\000\000\000\000\000\000\000\213\001\000\000\000\000\000\000\000\000\000\000\000\000\000\000\214\001\000\000\000\000\000\000\000\000\000\000\000\000\000\000\215\001\000\000\000\000\000\000\000\000\000\000\000\000\000\000\216\001\000\000\000\000\000\000\000\000\000\000\000\000\000\000\217\001\000\000\000\000\000\000\000\000\000\000\000\000\000\000\220\001\000\000\000\000\000\000\000\000\000\000\000\000\000\000\221\001\000\000\000\000\000\000\000\000\000\000\000\000\000\000\222\001\000\000\000\000\000\000\000\000\000\000\000\000\000\000\223\001\000\000\000\000\000\000\000\000\000\000\000\000\000\000\224\001\000\000\000\000\000\000\000\000\000\000\000\000\000\000\225\001\000\000\000\000\000\000\000\000\000\000\000\000\000\000\226\001\000\000\000\000\000\000\000\000\000\000\000\000\000\000\227\001\000\000\000\000\000\000\000\000\000\000\000\000\000\000\230\001\000\000\000\000\000\000\000\000\000\000\000\000\000\000\231\001\000\000\000\000\000\000\000\000\000\000\000\000\000\000\232\001\000\000\000\000\000\000\000\000\000\000\000\000\000\000\233\001\000\000\000\000\000\000\000\000\000\000\000\000\000\000\234\001\000\000\000\000\000\000\000\000\000\000\000\000\000\000\235\001\000\000\000\000\000\000\000\000\000\000\000\000\000\000\236\001\000\000\000\000\000\000\000\000\000\000\000\000\000\000\237\001\000\000\000\000\000\000\000\000\000\000\000\000\000\000\240\001\000\000\000\000\000\000\000\000\000\000\000\000\000\000\241\001\000\000\000\000\000\000\000\000\000\000\000\000\000\000\242\001\000\000\000\000\000\000\000\000\000\000\000\000\000\000\243\001\000\000\000\000\000\000\000\000\000\000\000\000\000\000\244\001\000\000\000\000\000\000\000\000\000\000\000\000\000\000\245\001\000\000\000\000\000\000\000\000\000\000\000\000\000\000\246\001\000\000\000\000\000\000\000\000\000\000\000\000\000\000\247\001\000\000\000\000\000\000\000\000\000\000\000\000\000\000\250\001\000\000\000\000\000\000\000\000\000\000\000\000\000\000\251\001\000\000\000\000\000\000\000\000\000\000\000\000\000\000\252\001\000\000\000\000\000\000\000\000\000\000\000\000\000\000\253\001\000\000\000\000\000\000\000\000\000\000\000\000\000\000\254\001\000\000\000\000\000\000\000\000\000\000\000\000\000\000\255\001\000\000\000\000\000\000\000\000\000\000\000\000\000\000\256\001\000\000\000\000\000\000\000\000\000\000\000\000\000\000\257\001\000\000\000\000\000\000\000\000\000\000\000\000\000\000\260\001\000\000\000\000\000\000\000\000\000\000\000\000\000\000\261\001\000\000\000\000\000\000\000\000\000\000\000\000\000\000\262\001\000\000\000\000\000\000\000\000\000\000\000\000\000\000\263\001\000\000\000\000\000\000\000\000\000\000\000\000\000\000\264\001\000\000\000\000\000\000\000\000\000\000\000\000\000\000\265\001\000\000\000\000\000\000\000\000\000\000\000\000\000\000\266\001\000\000\000\000\000\000\000\000\000\000\000\000\000\000\267\001\000\000\000\000\000\000\000\000\000\000\000\000\000\000\270\001\000\000\000\000\000\000\000\000\000\000\000\000\000\000\271\001\000\000\000\000\000\000\000\000\000\000\000\000\000\000\272\001\000\000\000\000\000\000\000\000\000\000\000\000\000\000\273\001\000\000\000\000\000\000\000\000\000\000\000\000\000\000\274\001\000\000\000\000\000\000\000\000\000\000\000\000\000\000\275\001\000\000\000\000\000\000\000\000\000\000\000\000\000\000\276\001\000\000\000\000\000\000\000\000\000\000\000\000\000\000\277\001\000\000\000\000\000\000\000\000\000\000\000\000\000\000\300\001\000\000\000\000\000\000\000\000\000\000\000\000\000\000\301\001\000\000\000\000\000\000\000\000\000\000\000\000\000\000\302\001\000\000\000\000\000\000\000\000\000\000\000\000\000\000\303\001\000\000\000\000\000\000\000\000\000\000\000\000\000\000\304\001\000\000\000\000\000\000\000\000\000\000\000\000\000\000\305\001\000\000\000\000\000\000\000\000\000\000\000\000\000\000\306\001\000\000\000\000\000\000\000\000\000\000\000\000\000\000\307\001\000\000\000\000\000\000\000\000\000\000\000\000\000\000\310\001\000\000\000\000\000\000\000\000\000\000\000\000\000\000\311\001\000\000\000\000\000\000\000\000\000\000\000\000\000\000\312\001\000\000\000\000\000\000\000\000\000\000\000\000\000\000\313\001\000\000\000\000\000\000\000\000\000\000\000\000\000\000\314\001\000\000\000\000\000\000\000\000\000\000\000\000\000\000\315\001\000\000\000\000\000\000\000\000\000\000\000\000\000\000\316\001\000\000\000\000\000\000\000\000\000\000\000\000\000\000\317\001\000\000\000\000\000\000\000\000\000\000\000\000\000\000\320\001\000\000\000\000\000\000\000\000\000\000\000\000\000\000\321\001\000\000\000\000\000\000\000\000\000\000\000\000\000\000\322\001\000\000\000\000\000\000\000\000\000\000\000\000\000\000\323\001\000\000\000\000\000\000\000\000\000\000\000\000\000\000\324\001\000\000\000\000\000\000\000\000\000\000\000\000\000\000\325\001\000\000\000\000\000\000\000\000\000\000\000\000\000\000\326\001\000\000\000\000\000\000\000\000\000\000\000\000\000\000\327\001\000\000\000\000\000\000\000\000\000\000\000\000\000\000\330\001\000\000\000\000\000\000\000\000\000\000\000\000\000\000\331\001\000\000\000\000\000\000\000\000\000\000\000\000\000\000\332\001\000\000\000\000\000\000\000\000\000\000\000\000\000\000\333\001\000\000\000\000\000\000\000\000\000\000\000\000\000\000\334\001\000\000\000\000\000\000\000\000\000\000\000\000\000\000\335\001\000\000\000\000\000\000\000\000\000\000\000\000\000\000\336\001\000\000\000\000\000\000\000\000\000\000\000\000\000\000\337\001\000\000\000\000\000\000\000\000\000\000\000\000\000\000\340\001\000\000\000\000\000\000\000\000\000\000\000\000\000\000\341\001\000\000\000\000\000\000\000\000\000\000\000\000\000\000\342\001\000\000\000\000\000\000\000\000\000\000\000\000\000\000\343\001\000\000\000\000\000\000\000\000\000\000\000\000\000\000\344\001\000\000\000\000\000\000\000\000\000\000\000\000\000\000\345\001\000\000\000\000\000\000\000\000\000\000\000\000\000\000\346\001\000\000\000\000\000\000\000\000\000\000\000\000\000\000\347\001\000\000\000\000\000\000\000\000\000\000\000\000\000\000\350\001\000\000\000\000\000\000\000\000\000\000\000\000\000\000\351\001\000\000\000\000\000\000\000\000\000\000\000\000\000\000\352\001\000\000\000\000\000\000\000\000\000\000\000\000\000\000\353\001\000\000\000\000\000\000\000\000\000\000\000\000\000\000\354\001\000\000\000\000\000\000\000\000\000\000\000\000\000\000\355\001\000\000\000\000\000\000\000\000\000\000\000\000\000\000\356\001\000\000\000\000\000\000\000\000\000\000\000\000\000\000\357\001\000\000\000\000\000\000\000\000\000\000\000\000\000\000\360\001\000\000\000\000\000\000\000\000\000\000\000\000\000\000\361\001\000\000\000\000\000\000\000\000\000\000\000\000\000\000\362\001\000\000\000\000\000\000\000\000\000\000\000\000\000\000\363\001\000\000\000\000\000\000\000\000\000\000\000\000\000\000\364\001\000\000\000\000\000\000\000\000\000\000\000\000\000\000\365\001\000\000\000\000\000\000\000\000\000\000\000\000\000\000\366\001\000\000\000\000\000\000\000\000\000\000\000\000\000\000\367\001\000\000\000\000\000\000\000\000\000\000\000\000\000\000\370\001\000\000\000\000\000\000\000\000\000\000\000\000\000\000\371\001\000\000\000\000\000\000\000\000\000\000\000\000\000\000\372\001\000\000\000\000\000\000\000\000\000\000\000\000\000\000\373\001\000\000\000\000\000\000\000\000\000\000\000\000\000\000\374\001\000\000\000\000\000\000\000\000\000\000\000\000\000\000\375\001\000\000\000\000\000\000\000\000\000\000\000\000\000\000\376\001\000\000\000\000\000\000\000\000\000\000\000\000\000\000\377\001\000\000\000\000\000\000\000\000\000\000\000\000\000\000\000\002\000\000\000\000\000\000\000\000\000\000\000\000\000\000\001\002\000\000\000\000\000\000\000\000\000\000\000\000\000\000\002\002\000\000\000\000\000\000\000\000\000\000\000\000\000\000\003\002\000\000\000\000\000\000\000\000\000\000\000\000\000\000\004\002\000\000\000\000\000\000\000\000\000\000\000\000\000\000\005\002\000\000\000\000\000\000\000\000\000\000\000\000\000\000\006\002\000\000\000\000\000\000\000\000\000\000\000\000\000\000\007\002\000\000\000\000\000\000\000\000\000\000\000\000\000\000\010\002\000\000\000\000\000\000\000\000\000\000\000\000\000\000\t\002\000\000\000\000\000\000\000\000\000\000\000\000\000\000\n\002\000\000\000\000\000\000\000\000\000\000\000\000\000\000\013\002\000\000\000\000\000\000\000\000\000\000\000\000\000\000\014\002\000\000\000\000\000\000\000\000\000\000\000\000\000\000\r\002\000\000\000\000\000\000\000\000\000\000\000\000\000\000\016\002\000\000\000\000\000\000\000\000\000\000\000\000\000\000\017\002\000\000\000\000\000\000\000\000\000\000\000\000\000\000\020\002\000\000\000\000\000\000\000\000\000\000\000\000\000\000\021\002\000\000\000\000\000\000\000\000\000\000\000\000\000\000\022\002\000\000\000\000\000\000\000\000\000\000\000\000\000\000\023\002\000\000\000\000\000\000\000\000\000\000\000\000\000\000\024\002\000\000\000\000\000\000\000\000\000\000\000\000\000\000\025\002\000\000\000\000\000\000\000\000\000\000\000\000\000\000\026\002\000\000\000\000\000\000\000\000\000\000\000\000\000\000\027\002\000\000\000\000\000\000\000\000\000\000\000\000\000\000\030\002\000\000\000\000\000\000\000\000\000\000\000\000\000\000\031\002\000\000\000\000\000\000\000\000\000\000\000\000\000\000\032\002\000\000\000\000\000\000\000\000\000\000\000\000\000\000\033\002\000\000\000\000\000\000\000\000\000\000\000\000\000\000\034\002\000\000\000\000\000\000\000\000\000\000\000\000\000\000\035\002\000\000\000\000\000\000\000\000\000\000\000\000\000\000\036\002\000\000\000\000\000\000\000\000\000\000\000\000\000\000\037\002\000\000\000\000\000\000\000\000\000\000\000\000\000\000 \002\000\000\000\000\000\000\000\000\000\000\000\000\000\000!\002\000\000\000\000\000\000\000\000\000\000\000\000\000\000\"\002\000\000\000\000\000\000\000\000\000\000\000\000\000\000#\002\000\000\000\000\000\000\000\000\000\000\000\000\000\000$\002\000\000\000\000\000\000\000\000\000\000\000\000\000\000%\002\000\000\000\000\000\000\000\000\000\000\000\000\000\000&\002\000\000\000\000\000\000\000\000\000\000\000\000\000\000\'\002\000\000\000\000\000\000\000\000\000\000\000\000\000\000(\002\000\000\000\000\000\000\000\000\000\000\000\000\000\000)\002\000\000\000\000\000\000\000\000\000\000\000\000\000\000*\002\000\000\000\000\000\000\000\000\000\000\000\000\000\000+\002\000\000\000\000\000\000\000\000\000\000\000\000\000\000,